/* Generated by Edge Impulse
 *
 * Permission is hereby granted, free of charge, to any person obtaining a copy
 * of this software and associated documentation files (the "Software"), to deal
 * in the Software without restriction, including without limitation the rights
 * to use, copy, modify, merge, publish, distribute, sublicense, and/or sell
 * copies of the Software, and to permit persons to whom the Software is
 * furnished to do so, subject to the following conditions:
 *
 * The above copyright notice and this permission notice shall be included in
 * all copies or substantial portions of the Software.
 *
 * THE SOFTWARE IS PROVIDED "AS IS", WITHOUT WARRANTY OF ANY KIND, EXPRESS OR
 * IMPLIED, INCLUDING BUT NOT LIMITED TO THE WARRANTIES OF MERCHANTABILITY,
 * FITNESS FOR A PARTICULAR PURPOSE AND NONINFRINGEMENT. IN NO EVENT SHALL THE
 * AUTHORS OR COPYRIGHT HOLDERS BE LIABLE FOR ANY CLAIM, DAMAGES OR OTHER
 * LIABILITY, WHETHER IN AN ACTION OF CONTRACT, TORT OR OTHERWISE, ARISING FROM,
 * OUT OF OR IN CONNECTION WITH THE SOFTWARE OR THE USE OR OTHER DEALINGS IN THE
 * SOFTWARE.
 */

#ifndef _EI_CLASSIFIER_TFLITE_LEARN_17_H_
#define _EI_CLASSIFIER_TFLITE_LEARN_17_H_

#define EI_CLASSIFIER_TFLITE_LEARN_17_ARENA_SIZE     3212
const size_t tflite_learn_17_arena_size = 3212;

#ifdef EI_CLASSIFIER_TFLITE_ARENA_SIZE
#if EI_CLASSIFIER_TFLITE_ARENA_SIZE < EI_CLASSIFIER_TFLITE_LEARN_17_ARENA_SIZE
#undef EI_CLASSIFIER_TFLITE_ARENA_SIZE
#define EI_CLASSIFIER_TFLITE_ARENA_SIZE EI_CLASSIFIER_TFLITE_LEARN_17_ARENA_SIZE
#endif // #if EI_CLASSIFIER_TFLITE_ARENA_SIZE < EI_CLASSIFIER_TFLITE_LEARN_17_ARENA_SIZE
#else
#define EI_CLASSIFIER_TFLITE_ARENA_SIZE EI_CLASSIFIER_TFLITE_LEARN_17_ARENA_SIZE
#endif // #ifdef EI_CLASSIFIER_TFLITE_ARENA_SIZE

#if defined __GNUC__
#define ALIGN(X) __attribute__((aligned(X)))
#elif defined _MSC_VER
#define ALIGN(X) __declspec(align(X))
#elif defined __TASKING__
#define ALIGN(X) __align(X)
#else
#define ALIGN(X)
#endif

ALIGN(16) const unsigned char tflite_learn_17[] = {
  0x20, 0x00, 0x00, 0x00, 0x54, 0x46, 0x4c, 0x33, 0x00, 0x00, 0x00, 0x00,
  0x14, 0x00, 0x20, 0x00, 0x1c, 0x00, 0x18, 0x00, 0x14, 0x00, 0x10, 0x00,
  0x0c, 0x00, 0x00, 0x00, 0x08, 0x00, 0x04, 0x00, 0x14, 0x00, 0x00, 0x00,
  0x1c, 0x00, 0x00, 0x00, 0x8c, 0x00, 0x00, 0x00, 0xe4, 0x00, 0x00, 0x00,
  0x64, 0x29, 0x00, 0x00, 0x74, 0x29, 0x00, 0x00, 0x38, 0x30, 0x00, 0x00,
  0x03, 0x00, 0x00, 0x00, 0x01, 0x00, 0x00, 0x00, 0x10, 0x00, 0x00, 0x00,
  0x00, 0x00, 0x0a, 0x00, 0x10, 0x00, 0x0c, 0x00, 0x08, 0x00, 0x04, 0x00,
  0x0a, 0x00, 0x00, 0x00, 0x0c, 0x00, 0x00, 0x00, 0x1c, 0x00, 0x00, 0x00,
  0x3c, 0x00, 0x00, 0x00, 0x0f, 0x00, 0x00, 0x00, 0x73, 0x65, 0x72, 0x76,
  0x69, 0x6e, 0x67, 0x5f, 0x64, 0x65, 0x66, 0x61, 0x75, 0x6c, 0x74, 0x00,
  0x01, 0x00, 0x00, 0x00, 0x04, 0x00, 0x00, 0x00, 0x9c, 0xff, 0xff, 0xff,
  0x0a, 0x00, 0x00, 0x00, 0x04, 0x00, 0x00, 0x00, 0x08, 0x00, 0x00, 0x00,
  0x6f, 0x75, 0x74, 0x70, 0x75, 0x74, 0x5f, 0x30, 0x00, 0x00, 0x00, 0x00,
  0x01, 0x00, 0x00, 0x00, 0x04, 0x00, 0x00, 0x00, 0x82, 0xd6, 0xff, 0xff,
  0x04, 0x00, 0x00, 0x00, 0x01, 0x00, 0x00, 0x00, 0x78, 0x00, 0x00, 0x00,
  0x02, 0x00, 0x00, 0x00, 0x34, 0x00, 0x00, 0x00, 0x04, 0x00, 0x00, 0x00,
  0xdc, 0xff, 0xff, 0xff, 0x0d, 0x00, 0x00, 0x00, 0x04, 0x00, 0x00, 0x00,
  0x13, 0x00, 0x00, 0x00, 0x43, 0x4f, 0x4e, 0x56, 0x45, 0x52, 0x53, 0x49,
  0x4f, 0x4e, 0x5f, 0x4d, 0x45, 0x54, 0x41, 0x44, 0x41, 0x54, 0x41, 0x00,
  0x08, 0x00, 0x0c, 0x00, 0x08, 0x00, 0x04, 0x00, 0x08, 0x00, 0x00, 0x00,
  0x0c, 0x00, 0x00, 0x00, 0x04, 0x00, 0x00, 0x00, 0x13, 0x00, 0x00, 0x00,
  0x6d, 0x69, 0x6e, 0x5f, 0x72, 0x75, 0x6e, 0x74, 0x69, 0x6d, 0x65, 0x5f,
  0x76, 0x65, 0x72, 0x73, 0x69, 0x6f, 0x6e, 0x00, 0x0e, 0x00, 0x00, 0x00,
  0x7c, 0x28, 0x00, 0x00, 0x74, 0x28, 0x00, 0x00, 0x48, 0x28, 0x00, 0x00,
  0xac, 0x27, 0x00, 0x00, 0x4c, 0x27, 0x00, 0x00, 0x1c, 0x24, 0x00, 0x00,
  0x6c, 0x23, 0x00, 0x00, 0xac, 0x00, 0x00, 0x00, 0xa4, 0x00, 0x00, 0x00,
  0x9c, 0x00, 0x00, 0x00, 0x94, 0x00, 0x00, 0x00, 0x8c, 0x00, 0x00, 0x00,
  0x6c, 0x00, 0x00, 0x00, 0x04, 0x00, 0x00, 0x00, 0x2a, 0xd7, 0xff, 0xff,
  0x04, 0x00, 0x00, 0x00, 0x58, 0x00, 0x00, 0x00, 0x0c, 0x00, 0x00, 0x00,
  0x08, 0x00, 0x0e, 0x00, 0x08, 0x00, 0x04, 0x00, 0x08, 0x00, 0x00, 0x00,
  0x10, 0x00, 0x00, 0x00, 0x28, 0x00, 0x00, 0x00, 0x00, 0x00, 0x06, 0x00,
  0x08, 0x00, 0x04, 0x00, 0x06, 0x00, 0x00, 0x00, 0x04, 0x00, 0x00, 0x00,
  0x01, 0x00, 0x00, 0x00, 0xeb, 0x03, 0x00, 0x00, 0x00, 0x00, 0x0a, 0x00,
  0x10, 0x00, 0x0c, 0x00, 0x08, 0x00, 0x04, 0x00, 0x0a, 0x00, 0x00, 0x00,
  0x03, 0x00, 0x00, 0x00, 0x02, 0x00, 0x00, 0x00, 0x04, 0x00, 0x00, 0x00,
  0x06, 0x00, 0x00, 0x00, 0x32, 0x2e, 0x31, 0x31, 0x2e, 0x31, 0x00, 0x00,
  0x8e, 0xd7, 0xff, 0xff, 0x04, 0x00, 0x00, 0x00, 0x10, 0x00, 0x00, 0x00,
  0x31, 0x2e, 0x31, 0x34, 0x2e, 0x30, 0x00, 0x00, 0x00, 0x00, 0x00, 0x00,
  0x00, 0x00, 0x00, 0x00, 0x78, 0xd7, 0xff, 0xff, 0x7c, 0xd7, 0xff, 0xff,
  0x80, 0xd7, 0xff, 0xff, 0x84, 0xd7, 0xff, 0xff, 0xba, 0xd7, 0xff, 0xff,
  0x04, 0x00, 0x00, 0x00, 0xb0, 0x22, 0x00, 0x00, 0x14, 0x1e, 0x14, 0x04,
  0x00, 0x15, 0xf8, 0x1e, 0x38, 0x08, 0x46, 0x40, 0xf9, 0x07, 0xf9, 0x28,
  0x2c, 0xe1, 0xf4, 0x08, 0x23, 0xeb, 0xeb, 0x01, 0xf0, 0x04, 0x17, 0xe5,
  0x32, 0x34, 0x1c, 0x0e, 0x05, 0x0a, 0x2d, 0x15, 0xeb, 0x03, 0xfe, 0xf6,
  0x14, 0x05, 0x14, 0xea, 0xeb, 0x21, 0xec, 0xfe, 0x3b, 0xf0, 0x0a, 0x05,
  0xe8, 0xe5, 0xde, 0x24, 0x03, 0xeb, 0xec, 0xd0, 0x11, 0x04, 0xd0, 0x13,
  0x19, 0xd3, 0x25, 0x1e, 0xf8, 0xef, 0x0f, 0xd7, 0xee, 0xf6, 0xe1, 0xeb,
  0xe6, 0x10, 0x21, 0xff, 0x29, 0xf1, 0xf8, 0xd4, 0x10, 0xf1, 0xef, 0xfa,
  0x15, 0xd6, 0xfc, 0xda, 0x09, 0xe9, 0x1b, 0x2a, 0x09, 0x16, 0xdf, 0xd1,
  0xe9, 0x20, 0x09, 0x18, 0x11, 0x24, 0xf2, 0xe9, 0xe9, 0xeb, 0x08, 0x1a,
  0x01, 0xef, 0xe2, 0x0c, 0xfb, 0xe4, 0x32, 0x35, 0xff, 0x28, 0x39, 0x08,
  0xfd, 0x10, 0xf5, 0xd9, 0xff, 0xe9, 0x01, 0x01, 0x13, 0x04, 0x1b, 0x20,
  0xfb, 0x02, 0xe6, 0xf4, 0x2a, 0x0e, 0xf5, 0xf7, 0xf5, 0xff, 0x0b, 0x20,
  0xed, 0xf1, 0x0f, 0x04, 0x06, 0x29, 0x14, 0xf6, 0x0c, 0xfd, 0xfc, 0x07,
  0x09, 0xf7, 0xfc, 0xe6, 0xf1, 0xe6, 0xcc, 0xf7, 0xf3, 0xdb, 0xdf, 0x0a,
  0xdb, 0xd3, 0xff, 0x13, 0xd5, 0x06, 0xf5, 0x0d, 0xf1, 0x13, 0x0c, 0xe1,
  0xdd, 0x0c, 0xf2, 0x09, 0xd4, 0x05, 0x19, 0xfd, 0x31, 0x0e, 0x33, 0x25,
  0xf3, 0x0b, 0xf4, 0x10, 0xf3, 0x04, 0xff, 0x08, 0x02, 0xff, 0xfe, 0xe7,
  0x2b, 0x22, 0x11, 0xd8, 0x14, 0x19, 0xd5, 0x20, 0x26, 0xd6, 0x1e, 0xe5,
  0xe6, 0xff, 0xbf, 0x21, 0xe4, 0x02, 0x0b, 0xd9, 0xf4, 0x0d, 0x13, 0x17,
  0xeb, 0x19, 0x07, 0xef, 0xf1, 0xf9, 0x26, 0x17, 0xd1, 0x01, 0xdf, 0x1e,
  0x0d, 0x14, 0xf9, 0xcc, 0xfb, 0xf0, 0xc8, 0x17, 0xe2, 0xd9, 0xe3, 0x11,
  0x08, 0x19, 0x0b, 0xe4, 0xf8, 0x0c, 0xf2, 0xe4, 0x1b, 0xf1, 0x0f, 0x03,
  0x20, 0xf9, 0xe1, 0x02, 0x05, 0xfb, 0xdd, 0x1b, 0xf0, 0xdf, 0x19, 0xe6,
  0xfa, 0xd2, 0xf3, 0xdd, 0x02, 0xf5, 0xcc, 0xda, 0x09, 0x18, 0xd1, 0xe6,
  0xc4, 0xeb, 0xec, 0x0b, 0xd4, 0xf3, 0x02, 0xe4, 0x10, 0xe7, 0xd4, 0x04,
  0xcd, 0xd9, 0xdd, 0xf4, 0x10, 0xf9, 0x0b, 0xe9, 0xdc, 0x05, 0xeb, 0xee,
  0x0f, 0x18, 0x13, 0xf1, 0xdc, 0xd1, 0x18, 0xd1, 0xda, 0x10, 0x0c, 0xe0,
  0xf3, 0xd8, 0x01, 0xf4, 0xd0, 0x25, 0x27, 0xf7, 0xec, 0x2d, 0x49, 0xe9,
  0xfd, 0xe8, 0xbd, 0xf9, 0xf8, 0x19, 0x2b, 0x21, 0x1d, 0x3b, 0xf0, 0xdd,
  0xd6, 0x2d, 0x16, 0xd8, 0x30, 0xf5, 0x1d, 0x32, 0x1a, 0x12, 0xea, 0x06,
  0x07, 0x08, 0x2b, 0x0b, 0xfb, 0xf7, 0xe0, 0x02, 0x12, 0xf3, 0x0f, 0xfb,
  0xcf, 0xe3, 0x09, 0x17, 0x11, 0x08, 0xf6, 0x1a, 0x24, 0x18, 0x27, 0xf1,
  0xfb, 0x10, 0xe2, 0x16, 0x1d, 0xec, 0x0b, 0x04, 0xe5, 0x2b, 0x19, 0x15,
  0xe3, 0xcb, 0xce, 0x1c, 0xe4, 0x0a, 0xcc, 0xd9, 0xfd, 0xf6, 0xd1, 0x1c,
  0xef, 0xe9, 0x16, 0xe8, 0xe5, 0xe3, 0xe6, 0x1d, 0x2c, 0xf7, 0x16, 0xf0,
  0x01, 0xfc, 0xea, 0x1e, 0xd5, 0xd7, 0xf1, 0xd9, 0xef, 0x1d, 0xf3, 0xe3,
  0xf8, 0x10, 0xd6, 0x18, 0xff, 0x11, 0x12, 0xf2, 0x24, 0xd0, 0x27, 0x28,
  0x2d, 0xea, 0xe2, 0xd9, 0x07, 0x00, 0x28, 0x16, 0x04, 0x25, 0xde, 0xe1,
  0x0b, 0xe8, 0xca, 0x0b, 0x0c, 0xca, 0x03, 0xe4, 0x04, 0x0f, 0xee, 0x15,
  0xf9, 0x03, 0x22, 0xf7, 0xf1, 0x09, 0xf0, 0x00, 0x06, 0x09, 0xb8, 0xf4,
  0x1f, 0x0e, 0x0b, 0xf8, 0xed, 0xd8, 0xf9, 0x2f, 0xff, 0x06, 0xd1, 0xe9,
  0x24, 0x38, 0x05, 0xf1, 0x0c, 0xe1, 0x0b, 0xef, 0xe5, 0x2a, 0x2e, 0x12,
  0xe2, 0x28, 0x1a, 0x27, 0xfd, 0x2a, 0x05, 0x33, 0xe5, 0xe3, 0x24, 0xef,
  0xec, 0x1d, 0x09, 0x68, 0x56, 0x4d, 0x2d, 0x13, 0x13, 0xfd, 0x15, 0x0b,
  0x27, 0xeb, 0x28, 0x09, 0xee, 0x17, 0x16, 0x0b, 0xfb, 0x11, 0x14, 0xe7,
  0x28, 0x0a, 0xe0, 0x1b, 0xdf, 0x33, 0xff, 0x2b, 0xef, 0x36, 0x12, 0x11,
  0xf9, 0x10, 0xf7, 0x08, 0xef, 0x37, 0x2b, 0x31, 0xe9, 0xea, 0x1a, 0x15,
  0x31, 0x22, 0x2a, 0x34, 0xfc, 0xef, 0x2b, 0x0b, 0xeb, 0x1c, 0x10, 0x28,
  0x2d, 0x1a, 0x01, 0xf8, 0x2b, 0xf8, 0xf4, 0x12, 0x2a, 0xfe, 0x2d, 0x3b,
  0x30, 0x25, 0x23, 0x24, 0x0b, 0x10, 0x40, 0xfb, 0xfe, 0x40, 0x45, 0x10,
  0x21, 0x13, 0x2e, 0xe5, 0xec, 0x0c, 0x06, 0xea, 0xe4, 0xfb, 0x2a, 0x01,
  0x2d, 0x1c, 0x24, 0x1d, 0x28, 0xe0, 0xef, 0x31, 0xe9, 0x12, 0xec, 0xf1,
  0xec, 0xfc, 0xe9, 0x07, 0xf0, 0xe9, 0x08, 0xf1, 0xf1, 0xeb, 0xf8, 0xf2,
  0xf5, 0xf5, 0x32, 0x00, 0x1d, 0x2c, 0x3f, 0x2c, 0xf9, 0x0b, 0xe1, 0x18,
  0xda, 0xf5, 0x21, 0xe5, 0xfd, 0x05, 0x0e, 0xf5, 0xf2, 0x23, 0xea, 0xec,
  0xd2, 0x1b, 0xf6, 0xc8, 0x06, 0x06, 0x22, 0x4d, 0x4f, 0x46, 0x0f, 0x3f,
  0x08, 0xfe, 0x3e, 0xfe, 0x41, 0x04, 0x34, 0x26, 0x3d, 0x1b, 0xf0, 0x11,
  0x3b, 0x10, 0x25, 0xf0, 0xff, 0x12, 0xe5, 0xfb, 0x38, 0x3e, 0xf2, 0x26,
  0xee, 0x25, 0xf2, 0x07, 0xd6, 0x08, 0x0c, 0x20, 0xfd, 0x00, 0x0c, 0x19,
  0xd9, 0x1a, 0xeb, 0x1d, 0xe9, 0x16, 0xd9, 0xf5, 0xf4, 0xd0, 0xf5, 0xf9,
  0xcd, 0x11, 0xd2, 0xfb, 0xd2, 0xf2, 0xfb, 0xe5, 0xed, 0xec, 0xd5, 0xf8,
  0x0d, 0xf8, 0xfc, 0xde, 0x09, 0xdf, 0x18, 0xee, 0x1a, 0x15, 0x23, 0x42,
  0xfc, 0xf7, 0x0f, 0xe2, 0x07, 0x1c, 0x12, 0x1b, 0xf1, 0x26, 0xfd, 0xf7,
  0x00, 0xfa, 0x02, 0xfd, 0xe9, 0xdd, 0xe3, 0xdd, 0xfe, 0xfc, 0x2a, 0xf8,
  0xf9, 0xed, 0xd0, 0xd1, 0x1e, 0x24, 0x0a, 0x21, 0xf0, 0x0e, 0xc8, 0xe5,
  0xfa, 0x3f, 0x15, 0x32, 0xef, 0x08, 0xd1, 0xcc, 0xe3, 0xf6, 0xd7, 0x0b,
  0xee, 0x11, 0xe0, 0x0d, 0xe8, 0xfe, 0x00, 0xda, 0x1b, 0xe0, 0x1d, 0x0e,
  0x26, 0x26, 0xe2, 0xde, 0xc0, 0xe1, 0x18, 0xed, 0xf4, 0xfc, 0xfe, 0x05,
  0x31, 0x20, 0x25, 0x3a, 0x39, 0xeb, 0xec, 0xdb, 0xf7, 0xff, 0xdf, 0x1d,
  0xfc, 0x08, 0x14, 0x0f, 0x13, 0xeb, 0x0a, 0xf8, 0xe3, 0x14, 0xff, 0x0e,
  0x0b, 0x1b, 0x17, 0xe9, 0x15, 0x20, 0xe0, 0x0a, 0xe6, 0x30, 0x27, 0x08,
  0xcf, 0xdb, 0xfd, 0xea, 0x02, 0x18, 0xfe, 0xeb, 0x16, 0x24, 0xf0, 0x0a,
  0xe6, 0xe0, 0x24, 0x00, 0x12, 0xf7, 0xff, 0x26, 0xf1, 0xf3, 0x22, 0xed,
  0xe4, 0xf8, 0x03, 0x19, 0xde, 0xd8, 0x04, 0x17, 0x16, 0x14, 0xd3, 0x25,
  0xe9, 0xdc, 0xca, 0xd4, 0x19, 0x03, 0x01, 0xfd, 0xfc, 0x27, 0xdf, 0x14,
  0x2d, 0xf0, 0xf2, 0x0d, 0x0b, 0xdb, 0x1b, 0x25, 0xfb, 0x20, 0xdf, 0xfa,
  0x1c, 0x25, 0xd8, 0x2a, 0x02, 0xec, 0xd4, 0xd4, 0x1a, 0xff, 0xa9, 0xcf,
  0x23, 0x16, 0x17, 0xee, 0x1e, 0xe1, 0x03, 0xf6, 0xfc, 0xda, 0xe7, 0xfe,
  0x1c, 0xc6, 0xd8, 0xdc, 0xd9, 0x03, 0xe1, 0xde, 0x1d, 0xd7, 0xcc, 0x1e,
  0xe1, 0xe4, 0x0d, 0xec, 0x10, 0xce, 0xfd, 0x0e, 0x0c, 0x15, 0xda, 0x93,
  0xd4, 0x18, 0x1f, 0x36, 0xff, 0xde, 0xd3, 0x07, 0x1b, 0xec, 0xdf, 0x11,
  0xe1, 0xd9, 0xdb, 0x00, 0xfe, 0xd9, 0x16, 0x1a, 0x05, 0xe1, 0xf2, 0xee,
  0xce, 0xf8, 0xd1, 0xeb, 0xda, 0x19, 0x00, 0x17, 0xea, 0x05, 0xfa, 0x0d,
  0xe7, 0xf4, 0xf3, 0xee, 0x03, 0x29, 0xf6, 0x0c, 0x3f, 0xd3, 0x1a, 0x1e,
  0x09, 0x0c, 0xe1, 0xeb, 0x03, 0x14, 0xf9, 0xd3, 0x08, 0xc2, 0xdf, 0xf0,
  0xc5, 0xce, 0xfd, 0x0a, 0x1a, 0x03, 0x08, 0xef, 0x0a, 0x07, 0xcc, 0x0f,
  0xd4, 0xe8, 0xfa, 0xf2, 0xee, 0xba, 0xdb, 0xe4, 0x18, 0x09, 0x0e, 0x2d,
  0xdb, 0x02, 0xe3, 0xc9, 0x19, 0xd7, 0xc0, 0xef, 0xde, 0xef, 0x09, 0xf2,
  0x23, 0xf1, 0x1e, 0xf1, 0xd3, 0x2b, 0x18, 0xdb, 0xc8, 0xdb, 0xfb, 0xce,
  0xf6, 0xe1, 0xc0, 0x0d, 0xed, 0xf6, 0xfd, 0xec, 0xda, 0x0c, 0x13, 0x23,
  0x35, 0xe7, 0x05, 0x37, 0x33, 0x1a, 0x00, 0x0c, 0xde, 0x1d, 0x0b, 0xd4,
  0x21, 0xfe, 0x0d, 0x04, 0x30, 0x25, 0x0e, 0xec, 0xef, 0xfe, 0x0a, 0x09,
  0x06, 0x04, 0xf0, 0x0c, 0xe5, 0x0a, 0xf4, 0xdb, 0xce, 0x04, 0xdb, 0xe9,
  0xce, 0xed, 0x12, 0xfe, 0xde, 0xf1, 0x1e, 0x0b, 0x19, 0x10, 0x1e, 0xdb,
  0x02, 0xdd, 0xfa, 0x20, 0x07, 0x09, 0x05, 0x10, 0xfe, 0x0d, 0xe8, 0xe7,
  0x23, 0x24, 0x14, 0xd1, 0xf1, 0x15, 0xd3, 0xdc, 0xf8, 0x06, 0x2a, 0x02,
  0xe3, 0x01, 0xfc, 0x06, 0x02, 0x27, 0x06, 0x21, 0x07, 0xfb, 0x0b, 0x22,
  0x16, 0x08, 0xd4, 0xe0, 0x00, 0xf3, 0xe2, 0xf5, 0xd8, 0x02, 0x0a, 0x1e,
  0x14, 0xfa, 0x02, 0x28, 0x28, 0x28, 0x0c, 0x19, 0xeb, 0xe9, 0x18, 0x16,
  0x1e, 0x27, 0x15, 0xf5, 0xce, 0xd6, 0xdc, 0x28, 0x1d, 0xce, 0xf5, 0x06,
  0x2d, 0xe8, 0x14, 0x09, 0x29, 0x1e, 0xf6, 0x1b, 0xd8, 0xe1, 0x03, 0x0e,
  0xea, 0x1b, 0xe2, 0x03, 0xdc, 0xf4, 0x15, 0xc7, 0xe3, 0xff, 0x16, 0xdc,
  0x0e, 0xe9, 0x20, 0x0e, 0x11, 0x25, 0xe2, 0x0c, 0x09, 0x01, 0x03, 0x10,
  0xd4, 0xeb, 0xf3, 0xd1, 0x0e, 0xfc, 0x1c, 0xfd, 0xf3, 0x29, 0xdb, 0xcd,
  0x0c, 0xe9, 0x01, 0x10, 0xe2, 0xfa, 0xdd, 0xe0, 0xd5, 0x29, 0xed, 0xce,
  0xde, 0x2d, 0x05, 0xe7, 0xf8, 0xf5, 0x0d, 0x12, 0x1a, 0xf9, 0xf9, 0x06,
  0x20, 0x2d, 0x06, 0x23, 0x07, 0x10, 0xea, 0x36, 0x30, 0xfe, 0x17, 0x06,
  0xff, 0xd7, 0xfc, 0xfc, 0x1c, 0x08, 0xf1, 0x16, 0x04, 0x28, 0x1f, 0xe2,
  0xe5, 0xd9, 0xd7, 0x24, 0x11, 0x20, 0x10, 0xec, 0x24, 0xf3, 0x34, 0x12,
  0xe2, 0xf0, 0x17, 0x31, 0x0e, 0x05, 0xfc, 0x0b, 0x33, 0x21, 0xe8, 0x39,
  0x12, 0x07, 0x2c, 0x02, 0xfc, 0x44, 0x17, 0x07, 0x3e, 0xf4, 0xf8, 0x00,
  0x02, 0x04, 0x0b, 0x19, 0xf9, 0x42, 0xf8, 0xf5, 0xf9, 0x32, 0x2c, 0x1b,
  0x01, 0xdf, 0xdc, 0xe3, 0x05, 0x05, 0xf0, 0x33, 0xff, 0xe5, 0xdb, 0x12,
  0x08, 0x1e, 0xeb, 0x2b, 0x1c, 0xdc, 0xe3, 0x0c, 0xf5, 0x06, 0x11, 0x15,
  0x2a, 0x0d, 0xd5, 0x02, 0xce, 0xd5, 0xe8, 0xe4, 0xe8, 0xcc, 0xd9, 0xfd,
  0x25, 0xf3, 0xdc, 0xfc, 0x1c, 0x07, 0x18, 0xd4, 0xeb, 0xdc, 0xee, 0xf8,
  0xf0, 0x13, 0x01, 0x1c, 0xda, 0x1e, 0x0d, 0xeb, 0xdd, 0x1f, 0x43, 0xc1,
  0x07, 0xf6, 0x13, 0x18, 0x2e, 0xfd, 0x1f, 0xf0, 0x1a, 0xd1, 0x1d, 0x0d,
  0xd4, 0x0a, 0x19, 0x21, 0xe9, 0x16, 0xdb, 0x1c, 0x1d, 0xd8, 0x19, 0xf1,
  0xde, 0xf1, 0xfb, 0x2b, 0x05, 0xf6, 0x23, 0xd4, 0x01, 0xe5, 0x00, 0xfe,
  0xce, 0x06, 0x32, 0xfb, 0xf3, 0xd5, 0x09, 0x20, 0x06, 0x01, 0xe0, 0x00,
  0x06, 0xd0, 0xee, 0xf3, 0x1b, 0x21, 0x27, 0xd1, 0x1e, 0xdb, 0xfa, 0xd8,
  0xd7, 0x16, 0xe9, 0xd5, 0x21, 0x12, 0xe8, 0x08, 0xea, 0x02, 0xec, 0xd6,
  0x3f, 0xaa, 0xe6, 0xd8, 0xfd, 0xc9, 0xe1, 0x00, 0xfa, 0x24, 0x1f, 0xff,
  0xff, 0x15, 0xee, 0x1f, 0xd0, 0x08, 0xfe, 0xe4, 0x0c, 0xee, 0xff, 0x27,
  0x2d, 0xfd, 0x08, 0x24, 0x27, 0xf5, 0x19, 0xfa, 0xed, 0xdc, 0xdf, 0xf5,
  0x26, 0xe7, 0xf8, 0xef, 0xe4, 0x1e, 0xae, 0xd0, 0xec, 0xff, 0xe7, 0xdd,
  0xfb, 0xf6, 0x13, 0xd7, 0xf7, 0xcf, 0x21, 0x22, 0x02, 0x26, 0xee, 0x12,
  0xda, 0x12, 0x1a, 0x23, 0xd7, 0xe0, 0xed, 0x06, 0xe8, 0xef, 0xdd, 0x28,
  0xe7, 0xdf, 0x20, 0x01, 0x29, 0x0c, 0xf3, 0xf7, 0xeb, 0xdf, 0xe2, 0xcd,
  0x16, 0xe0, 0xed, 0xe8, 0xca, 0x00, 0x00, 0xe8, 0xef, 0x16, 0xee, 0x25,
  0x0b, 0x03, 0xe1, 0xdf, 0xf6, 0xf1, 0xd6, 0x1e, 0xdf, 0x14, 0x16, 0x0b,
  0xec, 0xe2, 0xfb, 0x1e, 0xd6, 0xf9, 0x23, 0x07, 0x15, 0x21, 0x33, 0xf9,
  0x06, 0xe0, 0xee, 0x07, 0xf4, 0x02, 0x06, 0xfa, 0x39, 0xf0, 0x14, 0x30,
  0x29, 0xfa, 0xf9, 0x02, 0x1b, 0xea, 0x04, 0x25, 0xfd, 0xed, 0x02, 0x09,
  0x02, 0x24, 0x17, 0x06, 0x3e, 0x30, 0x00, 0x21, 0xf0, 0x11, 0x15, 0x20,
  0x01, 0xdc, 0xe2, 0x26, 0xfa, 0xe8, 0xf1, 0xf1, 0x08, 0xfd, 0xe4, 0x1a,
  0x33, 0xd7, 0x20, 0xf8, 0x33, 0xf5, 0xf1, 0xf0, 0x01, 0x03, 0xf4, 0x02,
  0xe0, 0x0e, 0x37, 0x02, 0xff, 0x02, 0x52, 0xf5, 0xdc, 0x00, 0xea, 0x0a,
  0x13, 0x1b, 0x0a, 0xf5, 0x19, 0xe5, 0xe7, 0x04, 0xf8, 0x2b, 0x02, 0xf2,
  0xe7, 0x1d, 0xdd, 0x2e, 0x0e, 0x15, 0xf3, 0x22, 0xdd, 0xfb, 0x01, 0x16,
  0x22, 0xe8, 0x21, 0x20, 0xdc, 0xf5, 0x0a, 0xfa, 0xee, 0x2d, 0x26, 0x35,
  0x26, 0x05, 0x20, 0xcf, 0x24, 0xdc, 0x25, 0x11, 0xdc, 0xe6, 0x08, 0x1b,
  0xfc, 0x19, 0x01, 0x11, 0x26, 0x12, 0x0d, 0x0f, 0xfc, 0x19, 0x27, 0xdc,
  0xdc, 0xec, 0x1e, 0x26, 0xf4, 0xd6, 0x00, 0x21, 0x4d, 0xd6, 0x1b, 0xf7,
  0x13, 0xea, 0x24, 0x15, 0xeb, 0x2e, 0x10, 0x2d, 0x0c, 0x18, 0xfc, 0xdf,
  0x20, 0x15, 0xf9, 0x12, 0x15, 0xe3, 0x0d, 0x0a, 0xe2, 0x2b, 0x02, 0xe7,
  0xe5, 0xd7, 0xef, 0x00, 0xfe, 0xec, 0xea, 0xef, 0x18, 0x1a, 0xda, 0xfa,
  0xfb, 0x04, 0x19, 0x06, 0x12, 0x2c, 0x28, 0x27, 0x1b, 0x1f, 0x26, 0x1a,
  0xfa, 0xdc, 0xda, 0xe3, 0xea, 0xd8, 0xd9, 0xf1, 0xe9, 0xd7, 0x2e, 0x18,
  0x07, 0xfc, 0x1d, 0x27, 0x03, 0x28, 0x1d, 0xee, 0x08, 0xf1, 0xdf, 0xe6,
  0xe9, 0xdc, 0x25, 0xff, 0x19, 0xff, 0xd7, 0x21, 0x28, 0x15, 0xe0, 0xec,
  0x06, 0xf6, 0x0c, 0xed, 0x09, 0x24, 0x10, 0x26, 0x20, 0x03, 0x18, 0x09,
  0xd8, 0xd8, 0xd4, 0xe1, 0xe0, 0x0c, 0x27, 0x20, 0xdc, 0x14, 0xd7, 0x27,
  0xe7, 0xe9, 0xd3, 0x18, 0x1a, 0x06, 0xf5, 0xd9, 0x0b, 0x27, 0x06, 0x25,
  0x22, 0xd2, 0xda, 0xdf, 0x01, 0xdf, 0xd9, 0x18, 0x02, 0xdd, 0xfb, 0xd8,
  0x20, 0xf2, 0x0e, 0x06, 0x25, 0x2b, 0xe0, 0x25, 0x2a, 0xd6, 0x22, 0x05,
  0xea, 0xe1, 0x1b, 0x0f, 0xeb, 0x0e, 0xf6, 0x15, 0xfb, 0x28, 0x1f, 0x02,
  0x25, 0x0b, 0x25, 0xe5, 0xd7, 0x24, 0x14, 0xf8, 0x1e, 0xeb, 0xd5, 0x2c,
  0x05, 0x1f, 0xe1, 0xd7, 0xe6, 0xf1, 0x2d, 0x07, 0xde, 0x15, 0x2c, 0x04,
  0x12, 0xda, 0x0d, 0x09, 0xe6, 0xd2, 0xea, 0xe8, 0x10, 0xdc, 0xd8, 0xeb,
  0x22, 0x23, 0xfb, 0xdc, 0x0a, 0x0d, 0x14, 0xd2, 0x12, 0xd6, 0x2a, 0xe1,
  0x14, 0xeb, 0xfe, 0x12, 0x12, 0x20, 0xd7, 0xe6, 0x22, 0xe5, 0x0b, 0x29,
  0xf9, 0xd2, 0x00, 0xee, 0x19, 0xd8, 0x14, 0x2b, 0x1c, 0x23, 0x23, 0x13,
  0x23, 0xed, 0x1a, 0x01, 0xea, 0xf6, 0xd8, 0x26, 0x24, 0x08, 0xdf, 0x00,
  0xd9, 0x13, 0x13, 0xed, 0x0b, 0xdf, 0x09, 0x21, 0x16, 0x28, 0x24, 0xdb,
  0x25, 0xf7, 0xd7, 0xdd, 0xe3, 0xd5, 0xe7, 0xdb, 0xd4, 0xe5, 0xfd, 0x21,
  0xf8, 0x09, 0x2d, 0x02, 0xff, 0xec, 0xdf, 0x20, 0x1f, 0xfa, 0x0b, 0xe9,
  0xee, 0x1e, 0x28, 0x19, 0xd6, 0xe7, 0x1b, 0xd8, 0xd9, 0xe2, 0x02, 0xd7,
  0xe2, 0xe5, 0x28, 0xf5, 0x28, 0xd1, 0x14, 0xd7, 0xdf, 0xe0, 0x15, 0x23,
  0xf3, 0x06, 0xff, 0xde, 0x1c, 0xdb, 0x08, 0xd4, 0x14, 0x17, 0xed, 0x28,
  0x25, 0x20, 0x25, 0xeb, 0xe8, 0x21, 0xea, 0xec, 0xf1, 0xda, 0x28, 0x08,
  0x23, 0x11, 0x05, 0x2a, 0xd0, 0xd2, 0xe8, 0x24, 0xd9, 0xd8, 0xf7, 0x13,
  0x01, 0xef, 0xfd, 0x0b, 0x1f, 0xd8, 0x05, 0x22, 0xd4, 0x1a, 0x16, 0x2e,
  0xf8, 0x06, 0xee, 0x08, 0xf0, 0xd6, 0x18, 0xe4, 0x13, 0x21, 0x25, 0x04,
  0x09, 0x0c, 0x1a, 0x1d, 0x0c, 0xd1, 0xe8, 0xfc, 0x00, 0xd9, 0xf0, 0xe5,
  0x27, 0xec, 0xee, 0x14, 0x13, 0xf3, 0x0a, 0xef, 0xfb, 0x13, 0xe2, 0x27,
  0x28, 0x19, 0x23, 0xfc, 0xf6, 0xed, 0x2c, 0x0c, 0x0f, 0x26, 0xd4, 0xfb,
  0x0b, 0xde, 0xfc, 0x09, 0x04, 0xf1, 0xdc, 0xe5, 0x27, 0x16, 0x13, 0xdd,
  0xf6, 0xfc, 0x11, 0xfc, 0xfc, 0xe2, 0xea, 0xee, 0x17, 0x0a, 0x16, 0xe9,
  0x04, 0x0d, 0xed, 0x0d, 0x11, 0xf2, 0xe9, 0x16, 0xdf, 0xf4, 0x26, 0x0c,
  0xee, 0x0c, 0x0b, 0x0b, 0x0e, 0x24, 0x21, 0xe4, 0xeb, 0xfb, 0xfc, 0x26,
  0x11, 0xd4, 0x22, 0xe3, 0xf2, 0x0d, 0xda, 0x18, 0xef, 0xf1, 0xd4, 0x1e,
  0xdb, 0x12, 0x14, 0xf5, 0x1f, 0x1e, 0x2a, 0xdd, 0xfa, 0xdf, 0x12, 0xf8,
  0x10, 0x10, 0xe5, 0xf4, 0x28, 0x20, 0x19, 0xea, 0x27, 0x23, 0xdb, 0x15,
  0xff, 0xea, 0x16, 0x20, 0x05, 0x19, 0xe2, 0xdf, 0x2a, 0xec, 0x26, 0xd9,
  0xe2, 0x31, 0xf8, 0xe1, 0x16, 0x06, 0xf4, 0x08, 0x1f, 0xf7, 0xfd, 0x26,
  0xea, 0x12, 0x13, 0x25, 0x13, 0xdc, 0x19, 0x29, 0xf9, 0xf4, 0x08, 0x18,
  0xe7, 0x0f, 0xf0, 0xf1, 0xf0, 0x00, 0x13, 0xf7, 0xe9, 0xda, 0x26, 0x19,
  0x1a, 0x0b, 0x27, 0xf9, 0x13, 0xd7, 0xf4, 0xf4, 0xeb, 0xe5, 0x26, 0xe0,
  0x16, 0x20, 0xe1, 0x0d, 0xfb, 0x2c, 0xf1, 0xf1, 0xfd, 0x03, 0x06, 0x10,
  0x10, 0xe0, 0xe9, 0xf9, 0x22, 0x23, 0xfe, 0x0c, 0xfd, 0x20, 0xef, 0x22,
  0x0f, 0x10, 0x0e, 0x14, 0xfb, 0xda, 0x2b, 0xe1, 0x20, 0x04, 0xf5, 0xd8,
  0x10, 0x14, 0xf5, 0x0d, 0x10, 0x02, 0x23, 0x0a, 0xe1, 0x0e, 0xfd, 0xe7,
  0xf9, 0x28, 0xe2, 0xf0, 0xee, 0xc5, 0x06, 0xfd, 0xe4, 0xd5, 0x15, 0xe0,
  0xeb, 0x11, 0xdc, 0xfa, 0x00, 0xf4, 0xd7, 0x01, 0x16, 0xf3, 0xe0, 0x21,
  0xd8, 0x17, 0x03, 0x23, 0x05, 0xf4, 0x10, 0x02, 0x29, 0xde, 0xeb, 0xda,
  0x09, 0x11, 0xea, 0xf0, 0xe1, 0x14, 0xf6, 0x15, 0xd9, 0x02, 0xdb, 0xff,
  0x02, 0xf2, 0x16, 0xd9, 0xe1, 0xd4, 0xd2, 0xeb, 0xe1, 0x13, 0xee, 0xe1,
  0x07, 0x22, 0x25, 0xf3, 0xfe, 0x30, 0xee, 0x05, 0x15, 0xd8, 0xe6, 0xe0,
  0xda, 0xf9, 0x02, 0xfa, 0x05, 0xf5, 0x18, 0x1b, 0x27, 0xde, 0xf6, 0x04,
  0xd2, 0xeb, 0xfb, 0x0a, 0xf4, 0xfe, 0xf1, 0xfa, 0xe4, 0xdc, 0xdb, 0x21,
  0x20, 0x24, 0x1b, 0xd6, 0xf8, 0xf4, 0x2a, 0x16, 0x2a, 0x1b, 0xf7, 0xfb,
  0x14, 0xd3, 0x0f, 0x19, 0xe2, 0x2a, 0x21, 0x3d, 0x55, 0x1d, 0x15, 0x40,
  0x12, 0x3f, 0x2f, 0x38, 0x44, 0x11, 0x0a, 0x15, 0xf4, 0x1a, 0x20, 0x30,
  0xf6, 0x16, 0xe3, 0xe9, 0x15, 0x2e, 0x22, 0x08, 0x31, 0x0c, 0x31, 0x2d,
  0x06, 0xe8, 0xf3, 0x2e, 0xfc, 0x15, 0x16, 0xe1, 0xe2, 0x0d, 0x06, 0x2f,
  0xcf, 0x11, 0x2a, 0x03, 0xfe, 0x19, 0x12, 0xfd, 0xfd, 0xfe, 0x18, 0xda,
  0xd9, 0x18, 0x2f, 0x05, 0xfd, 0xe0, 0x26, 0xe8, 0x0c, 0xd1, 0xcf, 0xe1,
  0xf7, 0xf2, 0x20, 0xfd, 0xd4, 0x33, 0x00, 0xf2, 0x0f, 0x18, 0x44, 0x14,
  0xdf, 0xe7, 0x18, 0x16, 0x2e, 0x23, 0x36, 0xf7, 0xf0, 0x26, 0xed, 0x10,
  0x32, 0xde, 0x03, 0xeb, 0x1e, 0xe0, 0xf7, 0x27, 0xdd, 0xe3, 0x04, 0xec,
  0xdd, 0xed, 0xf2, 0xf8, 0xfb, 0xe1, 0x11, 0x10, 0x08, 0xde, 0x0b, 0x06,
  0x03, 0xfd, 0x03, 0xe7, 0xf7, 0xed, 0xed, 0x08, 0x01, 0xd9, 0x1f, 0x0d,
  0xcd, 0xf6, 0xf9, 0xf3, 0xd7, 0xb9, 0x20, 0xea, 0x17, 0x1a, 0x0d, 0x19,
  0x15, 0xef, 0x18, 0xf3, 0xd0, 0xc8, 0x16, 0x08, 0xfe, 0xfd, 0x1f, 0xf4,
  0x28, 0x1a, 0x07, 0xcf, 0xfe, 0xd8, 0xdf, 0x09, 0x01, 0x10, 0xbe, 0xd3,
  0x1c, 0xfc, 0xff, 0x24, 0xf1, 0xf0, 0x0d, 0xe1, 0x1a, 0x12, 0xf0, 0xf5,
  0x17, 0x08, 0xee, 0x08, 0x06, 0xfd, 0xf4, 0x15, 0xeb, 0x25, 0x01, 0x3c,
  0xfd, 0x0a, 0xf2, 0x0f, 0xc5, 0xc7, 0x1e, 0x12, 0xef, 0xf5, 0x17, 0xd3,
  0xc6, 0x06, 0xd9, 0xd8, 0x1b, 0xe4, 0x23, 0x14, 0xf0, 0x0b, 0x07, 0xf9,
  0xea, 0x26, 0x0d, 0xfb, 0x1a, 0x1c, 0x12, 0xe0, 0xdf, 0x12, 0x15, 0xe0,
  0xe8, 0xfa, 0x07, 0xf4, 0x07, 0x20, 0x14, 0xe1, 0x11, 0x04, 0x28, 0xed,
  0xd0, 0x16, 0x21, 0xd8, 0xf5, 0xd6, 0xce, 0x27, 0xf6, 0x1c, 0xd2, 0xdf,
  0xe0, 0xf6, 0xea, 0xd8, 0x02, 0x1a, 0x02, 0xfb, 0x10, 0xee, 0x03, 0xd7,
  0xfe, 0x2b, 0x40, 0xdc, 0xfc, 0xe0, 0x08, 0xe0, 0x14, 0x17, 0xdb, 0x10,
  0xfa, 0xf8, 0x08, 0xef, 0xf9, 0xd9, 0xdf, 0x1b, 0x0a, 0x02, 0x03, 0xc9,
  0xdc, 0xec, 0x15, 0x03, 0x0d, 0x15, 0x12, 0x19, 0xe5, 0xc8, 0xee, 0x1f,
  0xf9, 0xf6, 0xdf, 0x09, 0x29, 0xd9, 0xe0, 0xff, 0xf3, 0x2e, 0xdb, 0x16,
  0xf1, 0xef, 0xe4, 0xef, 0x1f, 0xdf, 0xe3, 0xf9, 0xff, 0xe3, 0xed, 0xe4,
  0x00, 0xdb, 0xfb, 0x05, 0x06, 0x0f, 0xe3, 0x22, 0x15, 0xe9, 0x0a, 0x01,
  0x2e, 0x1c, 0xd6, 0x0d, 0x18, 0xd4, 0xf4, 0xb9, 0xb7, 0x16, 0xc9, 0x16,
  0xe3, 0xd1, 0xde, 0x0a, 0xd6, 0xe7, 0x08, 0x28, 0xfa, 0xf3, 0x01, 0x2f,
  0xeb, 0xf5, 0x03, 0x02, 0x09, 0x27, 0xf2, 0xee, 0x1c, 0x0c, 0x03, 0x2c,
  0xfb, 0x08, 0x24, 0x0a, 0xfe, 0xe1, 0x17, 0xd6, 0xd4, 0xe2, 0xf8, 0xf1,
  0xd8, 0x08, 0xfd, 0x29, 0xe6, 0xf6, 0xd2, 0x00, 0x12, 0x22, 0xfc, 0x24,
  0xf8, 0x2e, 0xe4, 0x11, 0x08, 0xe9, 0xec, 0x1d, 0x0d, 0xe4, 0x06, 0xfe,
  0xed, 0xce, 0xca, 0xee, 0xdd, 0x26, 0xe5, 0x17, 0xe8, 0xf9, 0xf4, 0xe1,
  0xed, 0xe8, 0xf8, 0xdc, 0x11, 0xf3, 0x08, 0x0c, 0x01, 0x13, 0xee, 0xf3,
  0xf5, 0xfb, 0x09, 0x04, 0x21, 0x09, 0x25, 0x02, 0x03, 0x03, 0xdc, 0xd9,
  0xe3, 0xec, 0x05, 0xe6, 0x26, 0xcb, 0xe4, 0x1b, 0x31, 0x11, 0xfa, 0x00,
  0xfc, 0x1a, 0x0c, 0xfe, 0x0a, 0x23, 0xfa, 0x13, 0x2d, 0x41, 0x43, 0x34,
  0x2b, 0x08, 0x2f, 0x0d, 0xdf, 0x2b, 0x0a, 0x18, 0x02, 0xf1, 0x11, 0x18,
  0xf9, 0xcc, 0x05, 0x11, 0xee, 0x05, 0xf1, 0xf5, 0x2b, 0x32, 0x15, 0x20,
  0xfb, 0xdc, 0x00, 0x15, 0x22, 0x1d, 0xe9, 0x00, 0xfd, 0x24, 0xed, 0xe9,
  0x1b, 0x1b, 0x04, 0xe8, 0x20, 0xd9, 0x10, 0xdb, 0x12, 0xdd, 0x14, 0xe9,
  0x29, 0x1d, 0xf6, 0x18, 0x02, 0xf0, 0xe8, 0xe2, 0xc6, 0x0e, 0xe1, 0x06,
  0xfe, 0x21, 0xed, 0x2e, 0x20, 0x00, 0x15, 0x08, 0x20, 0xec, 0x13, 0xe3,
  0x38, 0xfe, 0x19, 0xf5, 0xe4, 0x1b, 0xf1, 0x10, 0x25, 0x11, 0xeb, 0x06,
  0x0f, 0xe9, 0xf6, 0xf5, 0xd6, 0x0a, 0xe1, 0xcc, 0x23, 0xe2, 0x1c, 0xe6,
  0xd2, 0x00, 0x0e, 0xe7, 0xe3, 0xd8, 0xec, 0x25, 0xdc, 0xd7, 0x0e, 0xfd,
  0xde, 0xea, 0xf4, 0xee, 0x2e, 0xef, 0xd6, 0x28, 0xfd, 0xf7, 0x2a, 0x0b,
  0x3d, 0x25, 0x2b, 0x0a, 0xfa, 0x1a, 0xf7, 0x17, 0x12, 0xd4, 0xda, 0x08,
  0x19, 0xcf, 0xde, 0xeb, 0x0f, 0xf0, 0xdd, 0xd6, 0x23, 0xfb, 0x0f, 0x08,
  0xfc, 0xe2, 0x01, 0x0b, 0x17, 0xfb, 0xe4, 0x1d, 0xe8, 0x23, 0xe2, 0xfb,
  0x20, 0xf1, 0x18, 0xf7, 0xdf, 0x20, 0xe8, 0x20, 0x18, 0xec, 0x13, 0xeb,
  0x23, 0x21, 0x1b, 0x28, 0x1e, 0xcb, 0xf2, 0xf4, 0xd8, 0xe9, 0xcc, 0xd3,
  0xd4, 0xf0, 0x19, 0xd2, 0x11, 0xfb, 0x2b, 0x29, 0xf4, 0x16, 0xdd, 0xf5,
  0x28, 0xfd, 0xe0, 0xd5, 0x06, 0xe2, 0xf7, 0xc1, 0x12, 0xd2, 0xfd, 0xe9,
  0x01, 0x10, 0xc3, 0xc0, 0xca, 0x0e, 0x19, 0xe1, 0xca, 0xef, 0x15, 0x21,
  0xe7, 0xfc, 0xd9, 0x1e, 0xcf, 0xd3, 0xf6, 0xe8, 0xd3, 0xf1, 0x0c, 0xda,
  0x23, 0x21, 0x03, 0xde, 0x02, 0x24, 0xf7, 0x07, 0x27, 0x4a, 0xe4, 0xf6,
  0x27, 0xee, 0xea, 0x26, 0xea, 0xf4, 0xfe, 0xe1, 0x22, 0x2d, 0xe4, 0xec,
  0xe4, 0x22, 0x00, 0xfb, 0x36, 0xe1, 0x3c, 0x31, 0xf6, 0x09, 0xea, 0x07,
  0x34, 0x03, 0x0b, 0x2b, 0x38, 0xec, 0x01, 0x05, 0x2d, 0x1a, 0xf0, 0xe5,
  0x24, 0x15, 0xf3, 0xaa, 0xe1, 0xe6, 0xd2, 0x0d, 0x15, 0x0d, 0xe3, 0xd3,
  0x28, 0x14, 0xcf, 0xe0, 0x0f, 0x0b, 0x2c, 0xda, 0xf5, 0xf5, 0xdb, 0x23,
  0x32, 0x28, 0xd5, 0xd3, 0xfb, 0x0b, 0xee, 0xf9, 0xea, 0xd9, 0x03, 0xea,
  0x20, 0x00, 0xe7, 0x11, 0xe5, 0xf6, 0x0d, 0xe9, 0x0d, 0x38, 0x03, 0xd6,
  0x10, 0x12, 0x02, 0x12, 0x27, 0xee, 0x22, 0x1d, 0xfd, 0xf3, 0xfb, 0x1e,
  0x28, 0x22, 0x01, 0x2f, 0xfb, 0xe6, 0x23, 0xe4, 0xe9, 0xdf, 0x22, 0xf3,
  0x2b, 0xd4, 0xfb, 0x22, 0x0e, 0xf0, 0xe5, 0x1c, 0x30, 0xd7, 0xe4, 0xe7,
  0xe7, 0xd6, 0xdc, 0x0c, 0xee, 0x0d, 0xe1, 0x08, 0xf8, 0xf2, 0x2b, 0xdd,
  0x04, 0xec, 0x1d, 0x0b, 0xf1, 0xd9, 0x23, 0xf1, 0x02, 0x16, 0xe2, 0x04,
  0xea, 0xf2, 0xf9, 0xed, 0xef, 0x33, 0x20, 0x1c, 0x29, 0x01, 0x06, 0xd8,
  0xe2, 0x16, 0x04, 0xf2, 0x23, 0xf8, 0x2e, 0xe1, 0xff, 0x32, 0xf3, 0x13,
  0xec, 0xe8, 0xd7, 0xfb, 0x33, 0x24, 0x23, 0xf5, 0xf0, 0xf0, 0x1b, 0x29,
  0x33, 0x1b, 0xec, 0xee, 0xcd, 0xfa, 0x0c, 0xf9, 0xe5, 0x13, 0x04, 0x0d,
  0xd0, 0xd5, 0x03, 0xe7, 0xf2, 0x09, 0xf0, 0xfa, 0xfd, 0x09, 0x16, 0x0b,
  0x21, 0xd6, 0xe2, 0x12, 0x21, 0x12, 0x27, 0xdd, 0x01, 0x08, 0x08, 0x07,
  0x03, 0xd8, 0x24, 0x1a, 0xe1, 0x1b, 0xe1, 0x06, 0x21, 0x03, 0x20, 0x07,
  0x0b, 0x2d, 0xd4, 0x19, 0x29, 0x30, 0x22, 0x07, 0x32, 0x13, 0xdb, 0x1d,
  0xf5, 0x02, 0xea, 0xfc, 0x10, 0xe4, 0xf5, 0xfe, 0x0a, 0xe6, 0xe9, 0x08,
  0xe9, 0xef, 0x24, 0x2a, 0xee, 0x15, 0xe2, 0x1a, 0xe9, 0xdf, 0xe2, 0xd9,
  0x03, 0xd9, 0x1b, 0xf4, 0xe2, 0x18, 0xfb, 0xdb, 0x2f, 0xe4, 0xf3, 0xf9,
  0x01, 0xd8, 0x0f, 0x18, 0xdd, 0x0c, 0x22, 0xfa, 0x22, 0x15, 0xe2, 0xfb,
  0xf0, 0xf5, 0x21, 0x05, 0xeb, 0x00, 0xf7, 0x0b, 0xf8, 0x0a, 0x29, 0xeb,
  0xdf, 0x12, 0xe6, 0xd8, 0xd8, 0x01, 0x2c, 0x0c, 0x1f, 0xdc, 0x36, 0xed,
  0xe0, 0x10, 0x1e, 0x0f, 0x07, 0xed, 0xfb, 0x02, 0x15, 0xee, 0xeb, 0xe3,
  0xeb, 0xe4, 0x03, 0x28, 0x10, 0xd8, 0xdc, 0xf0, 0x0c, 0x2b, 0x29, 0x26,
  0x17, 0xfd, 0x0d, 0xf1, 0x2a, 0x2d, 0x1b, 0xf2, 0x12, 0x13, 0xdc, 0x18,
  0xe9, 0xef, 0x0e, 0x34, 0xfa, 0xea, 0x0b, 0xed, 0x0c, 0x2d, 0xfc, 0x26,
  0xf3, 0x04, 0xe1, 0x1b, 0x2c, 0xe9, 0xf7, 0x25, 0x0b, 0xef, 0xe8, 0x19,
  0xe7, 0xe8, 0x0f, 0x2b, 0x07, 0x02, 0x06, 0xe4, 0x01, 0xee, 0x29, 0x28,
  0x30, 0x26, 0xe1, 0x1d, 0x0a, 0xee, 0x1e, 0x03, 0xda, 0xda, 0xeb, 0xfb,
  0x27, 0x1c, 0xf9, 0x0f, 0x1d, 0x1e, 0x33, 0xfd, 0x01, 0xfd, 0x29, 0xfd,
  0x22, 0xf0, 0x19, 0xf2, 0xd7, 0x09, 0xd2, 0x18, 0x15, 0xfa, 0xdf, 0x0f,
  0x26, 0xf5, 0x05, 0xe6, 0xf5, 0xfd, 0xf2, 0x20, 0xfa, 0x08, 0xfd, 0x03,
  0x05, 0x2e, 0xe4, 0xec, 0xe7, 0x0c, 0x07, 0xdd, 0xf6, 0x28, 0xed, 0xef,
  0x11, 0xe0, 0x19, 0x00, 0x25, 0x00, 0x12, 0xf4, 0xfd, 0x2e, 0x02, 0x01,
  0x2c, 0x1f, 0xfe, 0x24, 0x2f, 0xe2, 0xfa, 0x03, 0x25, 0xf2, 0x40, 0x0b,
  0x40, 0x13, 0x13, 0xfc, 0x30, 0x2e, 0x36, 0x22, 0xee, 0x2c, 0x09, 0xea,
  0x1a, 0x08, 0x15, 0x0c, 0xf0, 0x13, 0x28, 0x18, 0xe8, 0x0d, 0x06, 0x13,
  0xfe, 0xca, 0x1e, 0xcf, 0x26, 0xde, 0xd2, 0x31, 0xe5, 0x36, 0x12, 0xf2,
  0xe9, 0xea, 0x31, 0xe9, 0xf4, 0xeb, 0x2b, 0xf8, 0x32, 0x29, 0xe5, 0x22,
  0xea, 0x18, 0xeb, 0xd9, 0x1a, 0x05, 0x26, 0x25, 0xd7, 0xd7, 0xe1, 0x0b,
  0x1b, 0xf3, 0xc9, 0xdc, 0x09, 0xe6, 0x29, 0x03, 0xfe, 0x08, 0xe3, 0xfc,
  0xf0, 0xe3, 0xe4, 0xf1, 0xde, 0xef, 0x03, 0xfd, 0x03, 0x06, 0x14, 0xff,
  0xd6, 0x01, 0x24, 0x11, 0x02, 0x11, 0xdf, 0x1e, 0x12, 0x18, 0xed, 0xfa,
  0x21, 0x1a, 0x13, 0xfc, 0xe0, 0x1d, 0xe3, 0x0d, 0x19, 0x12, 0x1b, 0xde,
  0xec, 0x28, 0x1e, 0x02, 0xee, 0xe6, 0x2c, 0xde, 0x01, 0xfe, 0xf7, 0x25,
  0xed, 0x1b, 0x0b, 0x1f, 0x37, 0xdd, 0x04, 0x0f, 0x33, 0x20, 0xef, 0xe3,
  0xda, 0x02, 0x03, 0x2c, 0xe4, 0x08, 0x12, 0x0c, 0xe4, 0x14, 0x13, 0xd5,
  0x21, 0xe0, 0x13, 0xf3, 0xc9, 0xd7, 0x24, 0xea, 0x09, 0x21, 0x0d, 0xfa,
  0xe7, 0xe8, 0xea, 0x36, 0x19, 0xfc, 0x11, 0xe1, 0xe9, 0xd9, 0xe1, 0x2f,
  0x1a, 0xdc, 0xe3, 0xdc, 0xf2, 0xf1, 0xf8, 0x05, 0x26, 0x19, 0xd6, 0x2f,
  0x0d, 0xfd, 0xdb, 0xe5, 0x25, 0x09, 0x1c, 0xef, 0x0c, 0x15, 0xf6, 0xf9,
  0x0c, 0x24, 0x19, 0x14, 0xe7, 0x1e, 0xec, 0xe8, 0xea, 0xd1, 0xf6, 0xfb,
  0xd0, 0x1b, 0x0e, 0x2a, 0x2c, 0x08, 0xf0, 0xe0, 0x13, 0xe1, 0x2e, 0xeb,
  0x2a, 0xf3, 0xf1, 0x1a, 0x0c, 0x1b, 0x31, 0x21, 0xec, 0x08, 0x30, 0x15,
  0xda, 0xdd, 0x20, 0x16, 0x14, 0xfc, 0xe8, 0x0c, 0xf2, 0xdd, 0xc3, 0xc2,
  0x1b, 0xd1, 0x1a, 0xc9, 0x18, 0x21, 0x0c, 0xf2, 0x27, 0x29, 0xd8, 0x2e,
  0x0a, 0x1e, 0x02, 0x27, 0x10, 0x14, 0x03, 0x06, 0x10, 0x0b, 0x12, 0xda,
  0xfe, 0xfc, 0xf1, 0x0d, 0xff, 0xfb, 0xd5, 0xf6, 0xd4, 0x1a, 0x03, 0x3e,
  0x3d, 0x53, 0x72, 0x1a, 0xff, 0x23, 0x32, 0x16, 0xe1, 0x13, 0xe0, 0xe9,
  0x2b, 0xf8, 0x00, 0xda, 0xe4, 0x1c, 0x1c, 0x1c, 0x22, 0x0f, 0xf6, 0xe8,
  0xea, 0xe7, 0x0d, 0xe1, 0xd5, 0x0a, 0xfa, 0xda, 0x13, 0x21, 0xf7, 0xb7,
  0x03, 0x16, 0x17, 0xd5, 0xcd, 0xfe, 0xc4, 0xfb, 0x00, 0xbe, 0x1b, 0xc8,
  0xee, 0xe0, 0x10, 0xd1, 0x14, 0xe4, 0xd9, 0xf6, 0xf4, 0x00, 0x27, 0xdb,
  0xf4, 0x1e, 0xce, 0xf0, 0x1c, 0x14, 0xfb, 0xe2, 0xf0, 0x1a, 0x06, 0xf9,
  0xc4, 0xc1, 0x04, 0xcb, 0xdb, 0x05, 0xe8, 0xfb, 0xfb, 0xed, 0x05, 0xc9,
  0xdb, 0xec, 0xee, 0xf9, 0x06, 0xf9, 0xd0, 0xd1, 0x1b, 0x1c, 0x12, 0xda,
  0x09, 0xea, 0x04, 0x17, 0xd7, 0xe1, 0xde, 0xff, 0xda, 0x24, 0x13, 0xe3,
  0x14, 0xdc, 0xd3, 0xd9, 0xf3, 0xdb, 0xe4, 0xe5, 0xe8, 0xf2, 0xd8, 0x11,
  0xe4, 0x2a, 0x10, 0xe4, 0xe6, 0xea, 0x05, 0x34, 0xe0, 0x0b, 0x18, 0x24,
  0xe5, 0xf8, 0xf1, 0xea, 0x1a, 0x2e, 0x06, 0x19, 0x2b, 0xde, 0x30, 0xf7,
  0x09, 0x2d, 0x30, 0x2d, 0x0c, 0xda, 0x14, 0xd4, 0x10, 0x29, 0xd0, 0x0a,
  0xeb, 0xf4, 0x04, 0xee, 0xde, 0xf9, 0x1c, 0xeb, 0x36, 0xfb, 0x21, 0x00,
  0x13, 0xe2, 0x0f, 0x07, 0x14, 0xf0, 0x2e, 0x06, 0x27, 0x18, 0xfb, 0x15,
  0x1c, 0x02, 0x1b, 0x4c, 0x1d, 0x23, 0xf8, 0xe8, 0xf5, 0x23, 0x25, 0xf4,
  0xe0, 0x15, 0x17, 0xd8, 0x25, 0xda, 0x01, 0x05, 0xf4, 0x13, 0xf2, 0x24,
  0x20, 0xf7, 0x03, 0xf4, 0x03, 0x12, 0x2f, 0xf4, 0x31, 0x02, 0xf6, 0xf7,
  0xe8, 0xce, 0xfa, 0x06, 0x0e, 0xfc, 0xe5, 0x13, 0xfa, 0xe2, 0xdc, 0xfd,
  0xea, 0xdc, 0xff, 0xd7, 0x17, 0xf7, 0xe0, 0x1a, 0xcf, 0xf2, 0xd7, 0x23,
  0xf7, 0xf2, 0xe4, 0x1b, 0x23, 0xe5, 0xcc, 0xec, 0x00, 0xfc, 0xf0, 0xf7,
  0xed, 0xeb, 0xff, 0x27, 0xfd, 0xcf, 0xeb, 0xde, 0xf9, 0xdb, 0xde, 0xf2,
  0xeb, 0xf7, 0x03, 0xf2, 0x0e, 0x0a, 0x00, 0xca, 0x21, 0x1d, 0xe8, 0xd7,
  0xce, 0xfd, 0xd1, 0x08, 0xd6, 0xe5, 0x29, 0x1c, 0xfc, 0x10, 0xe7, 0x0a,
  0x13, 0x01, 0xee, 0xf3, 0xeb, 0xc9, 0x21, 0xd4, 0x07, 0xd1, 0x1e, 0xea,
  0x00, 0x37, 0x19, 0x1b, 0xf1, 0x0d, 0x2a, 0x15, 0x31, 0x24, 0xeb, 0x0f,
  0xf3, 0xd6, 0x02, 0x1a, 0xfa, 0x02, 0x23, 0x2a, 0xda, 0xea, 0xfa, 0xdc,
  0xf3, 0xfd, 0x29, 0xf7, 0xeb, 0x08, 0x21, 0xed, 0x32, 0x16, 0x13, 0xf3,
  0xfa, 0x2a, 0x05, 0xf1, 0x1f, 0xf3, 0x30, 0x05, 0xdb, 0x08, 0xe4, 0x0c,
  0x04, 0xdb, 0xfe, 0x0f, 0xda, 0x16, 0x18, 0xe2, 0xd9, 0xda, 0xde, 0xf7,
  0xdd, 0xd0, 0xef, 0xfc, 0xe0, 0xd7, 0x1e, 0xf8, 0x26, 0x47, 0x2d, 0xe4,
  0xe9, 0x14, 0xeb, 0x35, 0xf3, 0x1b, 0xee, 0xce, 0xef, 0x1b, 0xca, 0x08,
  0xea, 0xdb, 0x19, 0xff, 0xfc, 0xc8, 0xd6, 0xcb, 0x12, 0xf5, 0x04, 0xd9,
  0x00, 0xfe, 0xef, 0xd2, 0x0f, 0xc2, 0xeb, 0x03, 0xdf, 0x37, 0xf9, 0x30,
  0x12, 0x22, 0x2f, 0xf8, 0x16, 0x0c, 0xdc, 0xe1, 0x09, 0xec, 0xe9, 0xd5,
  0xe9, 0xeb, 0x27, 0x00, 0xd5, 0x1f, 0x08, 0xff, 0x0e, 0xe1, 0x06, 0xf5,
  0xe8, 0x06, 0xe4, 0x12, 0xe0, 0x2d, 0x3b, 0xc3, 0xe5, 0x2b, 0x1b, 0x09,
  0xe6, 0xff, 0x16, 0xfb, 0xf0, 0x0c, 0x29, 0xd9, 0xe2, 0xff, 0x26, 0x22,
  0xe6, 0xdc, 0x33, 0x26, 0x20, 0x1d, 0x25, 0x12, 0xf8, 0x15, 0xee, 0x24,
  0x0c, 0xf8, 0x17, 0x31, 0xf5, 0xfd, 0xea, 0x06, 0xf5, 0x27, 0xd9, 0xf1,
  0xfb, 0x10, 0xda, 0xdf, 0x03, 0xfc, 0x0b, 0xe2, 0xfc, 0xf2, 0xeb, 0xfc,
  0xd9, 0xfb, 0xe7, 0x24, 0x01, 0x0a, 0x25, 0xf0, 0xfc, 0xf2, 0xed, 0x0d,
  0x14, 0x1b, 0xf6, 0xf1, 0x26, 0xf5, 0xe8, 0x35, 0xde, 0xe8, 0x15, 0xef,
  0x0b, 0x35, 0x1f, 0xf0, 0x2e, 0xf2, 0x11, 0x1d, 0xfd, 0x13, 0x1f, 0x27,
  0xd8, 0xe5, 0xe1, 0xf4, 0x11, 0xeb, 0xfa, 0x0b, 0xeb, 0xe4, 0x0d, 0xfe,
  0xee, 0xeb, 0xd4, 0x1e, 0xf9, 0xd0, 0xda, 0xde, 0xff, 0x22, 0x1a, 0xfa,
  0x02, 0x27, 0x02, 0x34, 0x1c, 0xf0, 0xec, 0xf6, 0x0c, 0xe3, 0xd2, 0x0c,
  0xd6, 0x09, 0x18, 0xd9, 0xf2, 0xee, 0x1e, 0x29, 0xe0, 0xdd, 0xfd, 0x26,
  0x2e, 0x2e, 0xf7, 0xf8, 0xf2, 0x23, 0x08, 0xe8, 0x07, 0xce, 0x04, 0x1e,
  0xf7, 0x06, 0xdb, 0xd7, 0xb5, 0xd8, 0x14, 0xc5, 0x03, 0xdd, 0xb7, 0x01,
  0xe5, 0xfc, 0xdd, 0xfa, 0x15, 0x18, 0xfd, 0x06, 0xfc, 0x2b, 0xf7, 0xff,
  0xf8, 0xe4, 0x0d, 0xe7, 0x2d, 0xf1, 0xf4, 0xd7, 0xe8, 0x09, 0x13, 0x14,
  0x12, 0xff, 0x18, 0x1f, 0x50, 0x08, 0x05, 0xf3, 0x35, 0x12, 0x0b, 0x3b,
  0x1f, 0xf0, 0x2d, 0xf3, 0x21, 0xe7, 0x07, 0xe7, 0x2f, 0x1d, 0x2d, 0x05,
  0x20, 0x1b, 0xec, 0xf7, 0x36, 0x2b, 0xff, 0x0b, 0xf8, 0xf3, 0x23, 0xd2,
  0xe8, 0xdf, 0x34, 0xdf, 0xe0, 0xdc, 0x08, 0x1e, 0xd4, 0xd4, 0x17, 0xf4,
  0x21, 0x1d, 0x0b, 0xf2, 0x18, 0x11, 0x36, 0x0a, 0x18, 0x16, 0x1f, 0xf4,
  0xf6, 0xd0, 0x01, 0xe3, 0xe2, 0xee, 0xe9, 0xd5, 0xe9, 0x1a, 0xd9, 0x06,
  0x14, 0x3c, 0x01, 0xdf, 0xfd, 0xed, 0x2c, 0xec, 0xff, 0x1c, 0x04, 0xf0,
  0xfb, 0x17, 0xde, 0x1e, 0x06, 0x18, 0x03, 0x31, 0x2f, 0xee, 0xef, 0x25,
  0x2c, 0x0e, 0x03, 0x41, 0xeb, 0x10, 0xfc, 0x0e, 0x07, 0x37, 0x05, 0x14,
  0x30, 0xe7, 0x33, 0x03, 0xea, 0xfd, 0x0a, 0x0b, 0xd7, 0xd0, 0xe1, 0xf1,
  0xf9, 0xdc, 0xde, 0x15, 0x05, 0x1e, 0xe6, 0x15, 0xf4, 0x2f, 0xfb, 0xd3,
  0xe5, 0xe2, 0x27, 0x14, 0xf0, 0xfb, 0x13, 0x0d, 0xfd, 0x07, 0x10, 0xf6,
  0xde, 0xce, 0xf9, 0xf8, 0x07, 0x11, 0x29, 0x00, 0xfa, 0xde, 0x0c, 0xd8,
  0xed, 0xea, 0x01, 0x11, 0xd0, 0x1d, 0x1f, 0xeb, 0xf1, 0xe1, 0xde, 0x18,
  0xec, 0xd3, 0xf7, 0xf2, 0xe9, 0xc7, 0x18, 0xd0, 0x17, 0xf1, 0xfa, 0xc9,
  0xeb, 0xe1, 0xf8, 0x36, 0x10, 0x3b, 0xda, 0x0a, 0xe0, 0xcc, 0xe8, 0x05,
  0x08, 0x17, 0xd5, 0xd7, 0x2a, 0xf9, 0x18, 0xe6, 0xfe, 0xd9, 0x10, 0x28,
  0x0f, 0xe9, 0xda, 0xef, 0x01, 0x16, 0x2e, 0xf5, 0xef, 0x1c, 0xf4, 0x1f,
  0x0a, 0xf1, 0x1b, 0x15, 0xeb, 0xe7, 0xf8, 0x2d, 0x40, 0xc2, 0xbc, 0xd9,
  0xef, 0x01, 0xef, 0xd9, 0xe3, 0x17, 0xf0, 0xe7, 0x0b, 0x0d, 0x1c, 0xf5,
  0x27, 0x0b, 0x21, 0x06, 0xd4, 0x26, 0xf1, 0x01, 0xfe, 0x1e, 0x19, 0xf2,
  0xf9, 0x01, 0x08, 0xde, 0xd3, 0xfe, 0x24, 0xea, 0xe2, 0x25, 0x1b, 0xfa,
  0x1d, 0x17, 0x38, 0x42, 0x10, 0xec, 0x47, 0x08, 0x2f, 0x20, 0x0d, 0x29,
  0xfb, 0xe7, 0xf4, 0xfe, 0xdd, 0xfb, 0x22, 0xd7, 0xfb, 0xf7, 0xe1, 0x0a,
  0xe3, 0xc7, 0xd5, 0xe1, 0x07, 0xfa, 0x18, 0x28, 0x0b, 0x0d, 0x0a, 0x00,
  0x1a, 0x30, 0xd7, 0xf4, 0x2b, 0xfa, 0x1b, 0xde, 0xfa, 0xf4, 0x01, 0xfd,
  0x35, 0x2e, 0x0a, 0xe2, 0x1f, 0x15, 0x15, 0xdc, 0xd5, 0x12, 0x0f, 0xeb,
  0xd0, 0xf3, 0x11, 0x13, 0x24, 0x20, 0xee, 0x0b, 0x17, 0x1e, 0xdc, 0x08,
  0x09, 0x14, 0xf4, 0xf1, 0x24, 0xea, 0xe3, 0xfb, 0x22, 0xd1, 0x08, 0xf3,
  0x18, 0xf0, 0xe6, 0xeb, 0x2f, 0xf2, 0xe3, 0xe4, 0x1b, 0xd7, 0xe5, 0x1d,
  0xe9, 0xf0, 0xef, 0xd4, 0xfa, 0x1e, 0xf5, 0x24, 0x19, 0xfa, 0xef, 0x35,
  0x06, 0xff, 0x14, 0x1d, 0x1a, 0x18, 0xdb, 0xe0, 0xf9, 0x12, 0xda, 0x1a,
  0xdd, 0xf7, 0xfd, 0xdd, 0x1d, 0xfd, 0xf8, 0xda, 0xf5, 0xf5, 0x00, 0xdb,
  0x06, 0xf3, 0xf3, 0x0d, 0x1c, 0xe8, 0xf2, 0xdb, 0x28, 0xfd, 0xeb, 0xd8,
  0xf5, 0x0a, 0xcf, 0xd9, 0xe1, 0x1e, 0xea, 0x16, 0x0f, 0x09, 0xda, 0xdf,
  0xf4, 0x23, 0xff, 0x21, 0xe6, 0xe4, 0x38, 0x1d, 0x32, 0xe4, 0x31, 0x23,
  0x04, 0xf1, 0x1f, 0x1b, 0x26, 0x18, 0x30, 0x2e, 0x0b, 0x0d, 0x1d, 0xd5,
  0xf4, 0x37, 0xf9, 0xab, 0x0c, 0x20, 0xe3, 0xf3, 0xec, 0xea, 0xcb, 0x02,
  0xe7, 0xd6, 0xd8, 0x2a, 0x06, 0xff, 0xe3, 0x10, 0x27, 0xe2, 0xdc, 0xfe,
  0x00, 0xf2, 0xe0, 0x01, 0x25, 0xd2, 0xef, 0x14, 0x25, 0xd8, 0x11, 0xdc,
  0xe0, 0xcb, 0xf9, 0x07, 0xd6, 0x1d, 0x38, 0x25, 0x67, 0x0a, 0xde, 0xf4,
  0xed, 0x12, 0xe8, 0xea, 0x31, 0xe9, 0xe3, 0xd5, 0x22, 0xea, 0x0b, 0x07,
  0xf9, 0xf7, 0xef, 0xe4, 0xe5, 0x0f, 0x04, 0xe6, 0xd2, 0xd4, 0x2a, 0xee,
  0x07, 0x01, 0x1c, 0xee, 0xf3, 0xdd, 0x0d, 0x3b, 0x19, 0x03, 0x24, 0x1a,
  0xc4, 0x13, 0x1c, 0xf8, 0x04, 0x00, 0xe3, 0x17, 0xf7, 0xee, 0x21, 0xe6,
  0x20, 0xcf, 0x18, 0xff, 0xd9, 0xef, 0x16, 0xe8, 0xf0, 0x2d, 0x26, 0xd1,
  0xe2, 0xf1, 0xf2, 0xf4, 0xee, 0xf2, 0xb3, 0xe8, 0xc7, 0xe2, 0x14, 0x03,
  0x05, 0x16, 0x02, 0xd0, 0xc4, 0x0e, 0xf4, 0xfc, 0x0f, 0x1c, 0x15, 0xea,
  0x02, 0xd8, 0xe4, 0xde, 0xf1, 0xd7, 0x1d, 0xd8, 0xda, 0xfc, 0xd2, 0xeb,
  0x01, 0xec, 0x15, 0x30, 0x19, 0x28, 0xcf, 0x27, 0x1b, 0xf5, 0xec, 0x20,
  0x16, 0xf5, 0x1e, 0x22, 0x22, 0x17, 0xf2, 0x09, 0xdb, 0x25, 0x1e, 0x25,
  0xe1, 0xe9, 0x1b, 0x01, 0xd8, 0xe4, 0xda, 0xff, 0x14, 0x21, 0xd9, 0xdd,
  0xdc, 0xeb, 0xe2, 0x1d, 0x13, 0x18, 0x1f, 0xee, 0xee, 0x01, 0x00, 0x1a,
  0x0b, 0xf5, 0xfa, 0xf8, 0x02, 0xeb, 0x02, 0xf8, 0x12, 0x0c, 0x22, 0x29,
  0x03, 0xfc, 0x25, 0x0d, 0x01, 0xe7, 0x11, 0xdc, 0x2b, 0xed, 0x0e, 0x24,
  0x21, 0xf2, 0x11, 0xe7, 0xd6, 0xf0, 0x1e, 0x0c, 0x23, 0xe3, 0x1e, 0x26,
  0x0e, 0xe9, 0x0f, 0xef, 0xe0, 0x18, 0x1a, 0xd6, 0x21, 0x25, 0xd9, 0x20,
  0xea, 0xe2, 0xeb, 0x2e, 0xe7, 0xef, 0xf8, 0xf2, 0x02, 0x24, 0x01, 0x29,
  0xf9, 0xf0, 0x03, 0xe8, 0x14, 0xf0, 0xc5, 0xdc, 0x08, 0x26, 0x34, 0x0c,
  0xf5, 0x20, 0x0b, 0xe8, 0xfd, 0x10, 0xfa, 0x14, 0xd9, 0xf1, 0x2f, 0x1d,
  0xe6, 0xec, 0x00, 0xeb, 0xeb, 0x2d, 0xe4, 0xfc, 0xfa, 0x0e, 0x34, 0x0f,
  0xf0, 0xf1, 0x05, 0xec, 0x28, 0xef, 0xe9, 0xf9, 0xef, 0xd2, 0xfa, 0xfc,
  0xfe, 0x26, 0x37, 0x22, 0xf4, 0xea, 0xf4, 0xe2, 0xf4, 0xe5, 0x1c, 0x1e,
  0x02, 0x2e, 0x2f, 0xea, 0xe7, 0x11, 0x00, 0xdb, 0xf1, 0xd7, 0x15, 0x19,
  0xf8, 0xe3, 0x08, 0x05, 0x0f, 0xf1, 0x26, 0x0b, 0x27, 0x03, 0x10, 0x01,
  0x14, 0x03, 0x20, 0x17, 0x30, 0x05, 0x29, 0x1a, 0xe3, 0xeb, 0xfa, 0xf0,
  0xdc, 0x11, 0x29, 0xeb, 0xec, 0x10, 0xfe, 0xe2, 0x29, 0x1c, 0xdd, 0x08,
  0xfb, 0xde, 0xf3, 0x26, 0xf5, 0xf9, 0xfd, 0xf8, 0x0e, 0x00, 0xe1, 0xed,
  0x1c, 0x0a, 0xe6, 0x1a, 0x20, 0xf3, 0x27, 0xf4, 0xfc, 0x20, 0xdd, 0xd9,
  0xd8, 0xe0, 0xd6, 0x20, 0x0f, 0xee, 0xe0, 0x1b, 0x1d, 0x20, 0xf2, 0x2b,
  0x23, 0x1a, 0xdc, 0x29, 0x19, 0x2a, 0xf7, 0x04, 0x0b, 0x1c, 0xff, 0xf1,
  0xcf, 0xe5, 0x0f, 0xf5, 0x03, 0x0d, 0x26, 0x07, 0xfc, 0xd8, 0xd5, 0xf4,
  0xe6, 0xf2, 0x04, 0xf6, 0xf4, 0xf3, 0xda, 0xef, 0xeb, 0xee, 0xf7, 0xd8,
  0x0d, 0xee, 0xee, 0xee, 0x15, 0x17, 0xff, 0x01, 0xcc, 0xfc, 0xdd, 0x44,
  0xe6, 0x31, 0xf6, 0xfc, 0x2a, 0x08, 0xea, 0xf9, 0xfa, 0xd4, 0x1e, 0x02,
  0x17, 0x0c, 0x04, 0x03, 0xd3, 0xdb, 0xe1, 0xec, 0xde, 0x19, 0xf2, 0xe0,
  0x21, 0xd6, 0xd4, 0xfa, 0x04, 0x12, 0x09, 0x01, 0xcb, 0x0e, 0xea, 0xff,
  0x35, 0x29, 0xe6, 0xee, 0xd7, 0xaf, 0xfc, 0xc8, 0x07, 0xca, 0xda, 0xe4,
  0xbc, 0xcc, 0xc5, 0x13, 0xde, 0xee, 0x22, 0x19, 0x11, 0x1e, 0x24, 0xe3,
  0x10, 0xfc, 0xe6, 0x10, 0x0a, 0xf1, 0xf5, 0x00, 0xcb, 0x06, 0xd8, 0xf7,
  0x0c, 0xcd, 0x0f, 0x02, 0xef, 0xff, 0xd4, 0xc3, 0xf4, 0x28, 0x13, 0xd1,
  0x0f, 0x13, 0x15, 0xfc, 0xec, 0x1b, 0x22, 0xd5, 0x2a, 0x27, 0xe9, 0xe5,
  0xfc, 0xee, 0x2c, 0xdd, 0xd3, 0xe8, 0xd4, 0xde, 0xf1, 0xe8, 0x2b, 0xed,
  0xdc, 0x0d, 0xcf, 0x08, 0x1a, 0xda, 0x1e, 0x0b, 0x1b, 0x12, 0x27, 0xf9,
  0xf4, 0x19, 0x24, 0x08, 0x1e, 0x1f, 0x09, 0x1e, 0xe1, 0x09, 0x0a, 0x07,
  0xef, 0x02, 0x1d, 0x2a, 0xe2, 0x1f, 0xe5, 0xfe, 0x19, 0x1d, 0xed, 0x2e,
  0x18, 0xd8, 0xfc, 0xf1, 0xd1, 0x24, 0xff, 0xd7, 0xf5, 0xde, 0xe9, 0xe3,
  0xc3, 0xd7, 0xe2, 0xea, 0x1f, 0xfa, 0xe9, 0xd5, 0xdd, 0x18, 0x03, 0xeb,
  0xcc, 0xd5, 0x19, 0xf4, 0xeb, 0x16, 0xf2, 0xf8, 0xc7, 0xcd, 0xf3, 0x19,
  0x08, 0xe1, 0xd7, 0xd0, 0xf7, 0x0f, 0x07, 0x18, 0xc7, 0xee, 0x05, 0xf6,
  0x1c, 0xf7, 0xfb, 0x21, 0x10, 0xe4, 0x0b, 0xe7, 0x27, 0xf9, 0x18, 0x08,
  0xdb, 0xed, 0x14, 0x04, 0x26, 0xf2, 0xdd, 0x0d, 0xf0, 0x2a, 0xdd, 0x2a,
  0xfe, 0xe8, 0xe3, 0x31, 0xd0, 0xf7, 0xe6, 0xf7, 0x1f, 0xd9, 0xac, 0xbd,
  0xc2, 0xe1, 0xfe, 0x1d, 0xf8, 0x0d, 0xe5, 0x14, 0x0e, 0xdc, 0xe4, 0xe8,
  0xd8, 0x28, 0x01, 0xe3, 0xfd, 0x02, 0x13, 0x18, 0xd9, 0xf2, 0x17, 0xef,
  0xeb, 0xdf, 0x25, 0xd6, 0x2d, 0xea, 0x40, 0xe9, 0x21, 0x1a, 0x06, 0x13,
  0xf9, 0xda, 0xbe, 0xee, 0xf2, 0x10, 0x09, 0xe6, 0xf4, 0xd9, 0xdf, 0x0f,
  0x0d, 0xe1, 0x23, 0x1d, 0x0a, 0xdd, 0xe1, 0x11, 0xff, 0xed, 0x14, 0x12,
  0xf6, 0xcd, 0xff, 0x02, 0x07, 0x1d, 0x1e, 0x00, 0xb2, 0x0c, 0xee, 0x03,
  0xef, 0x26, 0xfc, 0x14, 0x0f, 0x04, 0xcf, 0x27, 0x24, 0xe1, 0x0e, 0xfb,
  0x21, 0x0e, 0xd5, 0xd3, 0x0f, 0xd0, 0xf2, 0xec, 0x22, 0x10, 0x20, 0xdd,
  0xd6, 0x20, 0xe6, 0xd4, 0xf8, 0xf9, 0x00, 0x21, 0x25, 0xe4, 0xfe, 0xf8,
  0xf9, 0xff, 0xe3, 0xfa, 0x0a, 0xff, 0xd0, 0x1d, 0xe1, 0x25, 0xdf, 0x18,
  0x00, 0x05, 0xf0, 0xd3, 0xd8, 0x26, 0x23, 0x24, 0xe4, 0xe8, 0xfb, 0x03,
  0xea, 0xe1, 0x21, 0xcf, 0xd3, 0x10, 0x24, 0xdf, 0xf1, 0x04, 0xd5, 0x27,
  0x04, 0xed, 0x13, 0xf1, 0xe7, 0x23, 0x05, 0x1b, 0xf8, 0xd3, 0x07, 0xd1,
  0xf6, 0x1e, 0x11, 0x29, 0x0b, 0x03, 0xd9, 0xe4, 0xf3, 0x21, 0x19, 0xf8,
  0x22, 0xeb, 0x04, 0xe5, 0x0c, 0x1b, 0xe5, 0x2e, 0x18, 0x1e, 0x29, 0xfd,
  0x20, 0x0d, 0xbc, 0xec, 0xd4, 0x15, 0x28, 0xd4, 0xdf, 0xf9, 0xe9, 0xf1,
  0xfa, 0xe3, 0x03, 0x21, 0xdf, 0x00, 0xfa, 0xfb, 0x16, 0x0f, 0xe7, 0x19,
  0xe1, 0xe1, 0x1c, 0x2b, 0x1a, 0x38, 0x26, 0xdd, 0x0e, 0xe1, 0x19, 0x29,
  0x23, 0xdd, 0xf4, 0xb6, 0xf4, 0xce, 0xe9, 0x12, 0xfe, 0x15, 0x21, 0xd4,
  0xeb, 0xf5, 0xeb, 0x05, 0xda, 0xde, 0xda, 0xe5, 0xf4, 0xf4, 0x26, 0xff,
  0xea, 0xe4, 0x28, 0xfd, 0x29, 0x13, 0xed, 0xed, 0x01, 0x11, 0x31, 0xef,
  0xc2, 0x25, 0xeb, 0xef, 0xc1, 0x33, 0xfc, 0x02, 0x2e, 0xf9, 0x21, 0x21,
  0xda, 0xf3, 0x23, 0xec, 0x21, 0x17, 0x27, 0x24, 0x12, 0xe7, 0x20, 0xdf,
  0xf6, 0x00, 0xe1, 0x1f, 0xe9, 0xda, 0xfa, 0xdb, 0xdc, 0xf2, 0xd7, 0xeb,
  0xf7, 0x36, 0x17, 0xdd, 0x11, 0xe9, 0xc7, 0x20, 0xe8, 0x0c, 0xd6, 0xc3,
  0xc0, 0x17, 0xd8, 0xd1, 0x0a, 0xe5, 0xd7, 0xd0, 0x22, 0xda, 0xf0, 0x0e,
  0xea, 0x0d, 0x0f, 0x06, 0x2b, 0x08, 0xf9, 0x1b, 0xeb, 0x10, 0x23, 0xfa,
  0x10, 0x02, 0x14, 0x00, 0xea, 0x0f, 0xab, 0xb8, 0xca, 0x02, 0xd0, 0x0d,
  0xff, 0x09, 0x08, 0x13, 0xfb, 0xca, 0x08, 0x26, 0xea, 0x1f, 0x0d, 0x11,
  0x1b, 0xd0, 0x0d, 0xe4, 0x1c, 0xfc, 0xf8, 0x18, 0x1d, 0xf6, 0x07, 0xfd,
  0x26, 0xde, 0xd7, 0x40, 0x0c, 0x0e, 0x1c, 0x23, 0x0b, 0xd1, 0xe7, 0x29,
  0xe8, 0x03, 0x31, 0x14, 0x01, 0x31, 0xdf, 0xdd, 0x12, 0xf7, 0x11, 0x2e,
  0xfe, 0xdd, 0x1a, 0xf4, 0x09, 0xe6, 0x22, 0xd3, 0xf3, 0xdf, 0x0c, 0xed,
  0x2f, 0x0b, 0x12, 0x09, 0x0a, 0x0c, 0xcf, 0xf1, 0xda, 0x1b, 0xf6, 0xe0,
  0xef, 0xf6, 0xe3, 0x2c, 0x21, 0xe2, 0xf5, 0xdd, 0xf3, 0xdd, 0x13, 0xee,
  0xfb, 0x11, 0x0b, 0xd9, 0x0f, 0xdb, 0xfa, 0xfe, 0x04, 0x19, 0xf4, 0xff,
  0x1b, 0x25, 0x21, 0xe2, 0x0e, 0x03, 0x09, 0x12, 0x0f, 0xed, 0xde, 0x04,
  0xfb, 0x1b, 0xff, 0xf1, 0x06, 0x1b, 0xd9, 0xfe, 0x26, 0xea, 0x0b, 0x24,
  0x01, 0xf7, 0x2d, 0x0f, 0x1e, 0x13, 0xff, 0x09, 0x29, 0xe5, 0xf7, 0xe6,
  0x00, 0x11, 0xd4, 0x20, 0x0c, 0x19, 0xe2, 0xf2, 0x11, 0xe1, 0x24, 0x08,
  0x10, 0x11, 0x06, 0xfc, 0xf6, 0x01, 0x22, 0x1e, 0x1e, 0xdf, 0x30, 0x26,
  0x13, 0xf2, 0xff, 0x13, 0xe2, 0x02, 0xec, 0xd7, 0x1d, 0xde, 0x24, 0xf5,
  0x14, 0xf7, 0x03, 0x34, 0x10, 0x0d, 0x26, 0xee, 0xcc, 0xe9, 0x08, 0x19,
  0xe2, 0x17, 0x38, 0xe7, 0x17, 0x1c, 0x35, 0xf5, 0xe2, 0xf1, 0xef, 0xf7,
  0x2a, 0x27, 0x23, 0x22, 0xeb, 0x19, 0xfc, 0x03, 0xfb, 0xeb, 0x0d, 0xf0,
  0xf8, 0xf6, 0x21, 0xf6, 0x17, 0x1c, 0x1d, 0xf9, 0xc7, 0xdc, 0x02, 0xdb,
  0xf0, 0xd3, 0xd7, 0xec, 0xf0, 0xf2, 0xcf, 0xe9, 0xe6, 0xe5, 0x27, 0x0e,
  0x02, 0xd4, 0x1c, 0x14, 0xf6, 0x0d, 0x1d, 0xeb, 0xdb, 0xf6, 0x02, 0x2b,
  0xf5, 0x17, 0xf7, 0xd8, 0xf4, 0x09, 0x09, 0xe6, 0x3d, 0xfd, 0x22, 0xe0,
  0xf4, 0x17, 0xe8, 0xe2, 0xdb, 0xf8, 0x0f, 0x0c, 0x1a, 0xfb, 0xda, 0xcf,
  0x00, 0xf4, 0x2a, 0x09, 0xe9, 0xf0, 0x0b, 0xfd, 0x0e, 0xd8, 0xe5, 0x1d,
  0x1b, 0xf4, 0xf8, 0xf3, 0xd8, 0x24, 0xec, 0xf1, 0xde, 0xe5, 0xd4, 0x26,
  0xea, 0xe9, 0x16, 0x11, 0x22, 0xd4, 0xf5, 0xf2, 0x05, 0xe1, 0xda, 0x11,
  0x17, 0x01, 0xfb, 0x21, 0x17, 0x29, 0xe3, 0xf7, 0x27, 0xf1, 0xd8, 0x2b,
  0x26, 0x26, 0xfb, 0x07, 0x2f, 0x25, 0x00, 0xeb, 0x06, 0xeb, 0xf5, 0x17,
  0xe2, 0x30, 0xec, 0x12, 0x13, 0xf1, 0xdd, 0x0c, 0xfe, 0xf9, 0x20, 0xe4,
  0xec, 0x09, 0xea, 0xe7, 0x0f, 0xe9, 0x14, 0x14, 0x16, 0x14, 0xeb, 0x1f,
  0x0e, 0xf8, 0xf3, 0xde, 0x19, 0xe4, 0xf2, 0x0d, 0xda, 0x1b, 0x17, 0xff,
  0xce, 0xc9, 0xf4, 0x0c, 0xd8, 0xea, 0xfd, 0x14, 0xe4, 0xe4, 0xc4, 0x06,
  0xf7, 0xc1, 0x0f, 0xfd, 0xf4, 0x07, 0x18, 0xe8, 0x06, 0xd4, 0xf1, 0xf4,
  0xf8, 0x05, 0x17, 0xf3, 0x18, 0xd5, 0x13, 0xf8, 0xd1, 0x05, 0x28, 0x1a,
  0xf2, 0x30, 0xfe, 0x03, 0xed, 0x18, 0xdb, 0xe5, 0x18, 0xfa, 0xdf, 0xd2,
  0xf2, 0xfa, 0x0d, 0x0a, 0xd3, 0xf8, 0x03, 0xef, 0xf3, 0xe7, 0xea, 0xe4,
  0xfd, 0x16, 0x0d, 0x2c, 0xf9, 0x0b, 0xe0, 0xd0, 0x04, 0x0d, 0x19, 0xf5,
  0x24, 0x01, 0x0a, 0x22, 0x28, 0xd9, 0xd3, 0xf2, 0xe4, 0x02, 0xed, 0xdb,
  0xdc, 0xf7, 0xd4, 0x26, 0x22, 0xed, 0xff, 0xd3, 0xd2, 0xe5, 0x25, 0xde,
  0xd1, 0xf2, 0x05, 0x24, 0x28, 0x12, 0x13, 0xdd, 0xce, 0x09, 0xeb, 0x1c,
  0xdc, 0x09, 0x09, 0x0b, 0x10, 0x01, 0xd9, 0xe2, 0xf5, 0x23, 0x1e, 0xe7,
  0x20, 0x29, 0x20, 0x0d, 0x14, 0xf3, 0x01, 0x0f, 0x24, 0x09, 0x13, 0x0d,
  0xd5, 0x12, 0xdd, 0x2d, 0xd7, 0x0c, 0x06, 0x0e, 0xec, 0x24, 0xfc, 0xf4,
  0x15, 0x25, 0x05, 0xd4, 0x02, 0x14, 0x2a, 0xe8, 0x1e, 0xe2, 0x05, 0x11,
  0xff, 0x33, 0xde, 0xf3, 0xea, 0xfa, 0x01, 0xeb, 0x13, 0xee, 0xf1, 0x22,
  0x1d, 0x1c, 0xdb, 0x2a, 0x19, 0xf9, 0x18, 0xed, 0xfb, 0x17, 0x03, 0xde,
  0xe7, 0x03, 0x15, 0xff, 0xf0, 0xd4, 0xd1, 0xd6, 0x13, 0xee, 0xcb, 0x0e,
  0xd0, 0xea, 0xe3, 0x1e, 0xef, 0xe5, 0xe2, 0xf5, 0xfd, 0x27, 0xe4, 0x25,
  0x04, 0xed, 0x2f, 0xe1, 0xf4, 0xfd, 0x0e, 0xf6, 0x21, 0xe1, 0x00, 0x02,
  0x29, 0xf9, 0x2b, 0x0a, 0x10, 0xca, 0xeb, 0xe3, 0x0c, 0xfa, 0x03, 0xfe,
  0xce, 0xd1, 0x0e, 0xe1, 0x06, 0xed, 0x24, 0x11, 0xe9, 0xcc, 0x24, 0xdb,
  0x22, 0xe3, 0xe6, 0x1c, 0x03, 0xec, 0x1f, 0xd7, 0x07, 0x21, 0xfe, 0x01,
  0xe5, 0x34, 0x07, 0xf1, 0x1c, 0xda, 0xd4, 0xeb, 0xc7, 0xd7, 0xfe, 0xce,
  0x07, 0x08, 0x1b, 0xe4, 0xde, 0xe2, 0xf1, 0x03, 0xfa, 0xfb, 0x0e, 0xe2,
  0xea, 0x20, 0xf9, 0x0a, 0xe3, 0x08, 0x0f, 0xf0, 0xd6, 0xdb, 0xe1, 0xf3,
  0x19, 0x14, 0xfa, 0xe4, 0xef, 0x13, 0xe6, 0xd0, 0xe8, 0x01, 0xe4, 0x2f,
  0xe9, 0xf4, 0x02, 0x14, 0xe8, 0x0c, 0x0c, 0xf6, 0xe8, 0x32, 0x1e, 0x07,
  0x04, 0x17, 0xff, 0xe1, 0xf6, 0xfb, 0xde, 0x21, 0xd3, 0xd4, 0x08, 0xf0,
  0xf6, 0xf3, 0xde, 0xe6, 0x2f, 0x24, 0xe3, 0x2c, 0x12, 0xd4, 0xee, 0x09,
  0x16, 0x17, 0xe2, 0xf2, 0x06, 0x04, 0x19, 0x2b, 0x01, 0xfc, 0x22, 0xe2,
  0xfa, 0x2a, 0xdb, 0x0e, 0xfb, 0xee, 0x20, 0xd6, 0x13, 0xeb, 0x02, 0x2f,
  0xf2, 0x04, 0x13, 0x26, 0xdc, 0x19, 0x11, 0x0a, 0xf7, 0x38, 0xb3, 0x28,
  0xe2, 0xe6, 0x28, 0x0a, 0xf0, 0x28, 0xe0, 0xf9, 0x0e, 0x1c, 0x1d, 0x19,
  0xf5, 0xe5, 0x0e, 0x0e, 0x1f, 0x13, 0x2d, 0xf4, 0xe4, 0xe2, 0x1f, 0x13,
  0xdf, 0xfa, 0xe6, 0x18, 0xdf, 0x1c, 0xe8, 0x11, 0xde, 0xfd, 0xff, 0x29,
  0x18, 0xed, 0x03, 0x22, 0xf6, 0x2b, 0x12, 0xe2, 0x05, 0xfb, 0xde, 0x30,
  0xf9, 0x26, 0xdc, 0xdc, 0x20, 0x17, 0x07, 0xda, 0xd9, 0x1a, 0xf0, 0xfb,
  0x20, 0xf6, 0x21, 0x24, 0x01, 0xf3, 0x17, 0xeb, 0x31, 0x02, 0x08, 0xdb,
  0xf1, 0x0e, 0x2b, 0xe9, 0x16, 0x14, 0xe6, 0x11, 0x14, 0xef, 0xfc, 0x2b,
  0x2e, 0xef, 0x1c, 0x24, 0x0b, 0x15, 0xf2, 0x2b, 0x13, 0x09, 0xe7, 0x2a,
  0x07, 0x07, 0x1a, 0xfa, 0x1c, 0x06, 0xdc, 0x17, 0x13, 0x00, 0xd8, 0x22,
  0x21, 0xfe, 0x24, 0x19, 0x18, 0xf7, 0x10, 0xf2, 0x1a, 0xe0, 0x04, 0xef,
  0x15, 0x16, 0x07, 0xfb, 0x1c, 0x02, 0xd9, 0xff, 0xeb, 0x2e, 0xef, 0xd6,
  0x01, 0x1e, 0x2a, 0x15, 0xd7, 0x0b, 0x0a, 0x04, 0xec, 0x2a, 0xfb, 0xde,
  0xda, 0xf5, 0xf5, 0x14, 0xde, 0x0c, 0xd6, 0x21, 0x0f, 0x13, 0x4b, 0x40,
  0x29, 0x37, 0x1c, 0x15, 0xea, 0xf3, 0xe9, 0x13, 0xe9, 0xe4, 0xdc, 0xeb,
  0x12, 0xdb, 0x24, 0xe0, 0x21, 0x11, 0xfc, 0xf5, 0xf7, 0xf5, 0x25, 0x0c,
  0x07, 0x1c, 0x0c, 0xf3, 0xf9, 0xfc, 0x07, 0x3f, 0x2d, 0xfb, 0xda, 0x06,
  0xdf, 0xf8, 0xfa, 0x09, 0x19, 0xfb, 0xf6, 0xfc, 0xfa, 0x16, 0x1b, 0x08,
  0xf2, 0x1f, 0xf6, 0x26, 0x08, 0x1c, 0xfd, 0xf3, 0x10, 0x00, 0x20, 0x01,
  0xf9, 0x11, 0xf9, 0xf5, 0x47, 0x17, 0x29, 0xed, 0xad, 0xd8, 0xeb, 0xb5,
  0xbf, 0xfd, 0x00, 0xd4, 0xe9, 0x26, 0x18, 0x46, 0xc9, 0xed, 0x09, 0xd7,
  0xfa, 0x10, 0x27, 0x01, 0x08, 0xf2, 0x36, 0x1c, 0x0b, 0x11, 0x29, 0x20,
  0x07, 0x16, 0xd2, 0xe7, 0xf9, 0xdf, 0x13, 0x09, 0x21, 0xfe, 0xf7, 0x18,
  0x16, 0xf9, 0x1c, 0x19, 0x04, 0x2b, 0x2b, 0x3d, 0x43, 0x2f, 0x17, 0x22,
  0x2c, 0x0b, 0xe5, 0x3e, 0x33, 0xfc, 0xf1, 0xf2, 0x22, 0xf9, 0x1b, 0x24,
  0x2c, 0x13, 0x1d, 0x3c, 0x4b, 0xea, 0xe2, 0x09, 0xd5, 0xe9, 0xf2, 0xf8,
  0x20, 0xf8, 0xd4, 0x0a, 0xf2, 0x0d, 0x11, 0xf2, 0xf5, 0xf3, 0x1f, 0x17,
  0x12, 0xf8, 0xf7, 0x14, 0x35, 0x2a, 0x21, 0x20, 0xf6, 0x2a, 0x17, 0x0e,
  0xf4, 0xfa, 0x11, 0x0d, 0x02, 0x18, 0x34, 0x24, 0xe4, 0x32, 0x3c, 0xe7,
  0x13, 0x2e, 0xf7, 0x2c, 0x2f, 0x38, 0x24, 0x21, 0x32, 0x33, 0x15, 0x1b,
  0xf9, 0x02, 0x2b, 0x08, 0x2e, 0x1a, 0x51, 0x3b, 0x3c, 0x43, 0x39, 0x1f,
  0x3a, 0x30, 0x11, 0x13, 0x25, 0x14, 0x0f, 0x26, 0x3c, 0x14, 0xfa, 0xf1,
  0xde, 0x03, 0xe6, 0xfc, 0xda, 0xc0, 0x0e, 0x18, 0xe4, 0xee, 0x12, 0x0c,
  0xff, 0xf9, 0x1c, 0xec, 0x40, 0x03, 0xf9, 0x3f, 0x40, 0x10, 0xe1, 0x34,
  0xe8, 0xe8, 0xf9, 0xe8, 0x13, 0xee, 0x13, 0xfd, 0xde, 0xc9, 0xcb, 0xda,
  0x1a, 0xdd, 0x34, 0x34, 0xf8, 0xfb, 0x1b, 0x10, 0x00, 0xeb, 0xf7, 0x0d,
  0x22, 0x19, 0xe7, 0xe9, 0x07, 0xe7, 0xe6, 0x16, 0x2d, 0xd0, 0x04, 0xc8,
  0x0b, 0x0f, 0xe1, 0x1c, 0x07, 0x0d, 0x1a, 0xe8, 0x14, 0xd8, 0x43, 0xce,
  0x0f, 0x18, 0x13, 0x00, 0x2c, 0x46, 0x2a, 0xf4, 0x19, 0xfa, 0x21, 0x15,
  0xd9, 0x1e, 0x0c, 0xee, 0xec, 0x0e, 0xf4, 0x10, 0x05, 0xf0, 0x13, 0x19,
  0x22, 0x17, 0xf2, 0x21, 0xf7, 0x26, 0x06, 0xf7, 0xf8, 0x25, 0xcf, 0x03,
  0x0b, 0x28, 0x18, 0xd3, 0xef, 0xf1, 0xe0, 0x41, 0xed, 0xe4, 0x0f, 0x09,
  0x0e, 0xe2, 0xef, 0xf9, 0xdd, 0xdd, 0xda, 0x27, 0x17, 0x1d, 0x00, 0xe7,
  0x1a, 0x23, 0xd5, 0x28, 0xfe, 0xce, 0x15, 0x1c, 0xe3, 0xe9, 0x22, 0xfc,
  0x2f, 0xe1, 0x18, 0xfa, 0x1d, 0xe4, 0x0a, 0x19, 0x1b, 0xdf, 0x0e, 0xe4,
  0x21, 0x25, 0x3c, 0xdc, 0x36, 0x13, 0x19, 0x13, 0xe2, 0xdd, 0xe8, 0xfe,
  0xd3, 0x28, 0xf5, 0xf0, 0xfb, 0xef, 0xfd, 0x0d, 0xd1, 0xf7, 0xf4, 0xd1,
  0x00, 0xbe, 0x04, 0x1a, 0xfe, 0xf2, 0x2c, 0x32, 0x19, 0x33, 0x05, 0x2f,
  0xf4, 0x30, 0x39, 0x15, 0x0a, 0x32, 0x16, 0xdb, 0x39, 0xe2, 0xee, 0xdd,
  0x19, 0xe0, 0x0d, 0x17, 0x0d, 0x16, 0xf9, 0xee, 0xdd, 0x2b, 0x22, 0x24,
  0xf4, 0x05, 0x0e, 0xef, 0xfd, 0xfd, 0x27, 0x23, 0x02, 0xec, 0x17, 0x04,
  0x2d, 0x09, 0x02, 0xe1, 0x12, 0xd6, 0x19, 0xdb, 0x16, 0xf6, 0x15, 0xd6,
  0xf8, 0xde, 0xeb, 0x1a, 0x2d, 0xf0, 0x09, 0x17, 0x2e, 0xde, 0x1b, 0x23,
  0xcd, 0xfd, 0xbc, 0x12, 0x15, 0x2f, 0x09, 0xfb, 0x02, 0xd5, 0xf0, 0xea,
  0xd6, 0xec, 0xca, 0x1a, 0xf8, 0xcc, 0xcf, 0x0d, 0xf8, 0xec, 0x15, 0xdf,
  0xe7, 0x12, 0x17, 0x0f, 0xe7, 0xe9, 0x1a, 0xf2, 0xec, 0xd9, 0x1d, 0x1e,
  0x24, 0xf7, 0xf3, 0xde, 0xf2, 0xd7, 0x1c, 0xf7, 0xd9, 0x0f, 0xc4, 0x02,
  0x18, 0xdb, 0x20, 0xe8, 0x2e, 0xe3, 0x1b, 0x03, 0x1f, 0xe1, 0x17, 0x22,
  0xf4, 0xe7, 0xfb, 0x01, 0x12, 0x2d, 0x30, 0xea, 0x0a, 0xdf, 0xf7, 0x31,
  0x06, 0xdf, 0x28, 0xf5, 0x04, 0xf0, 0xdb, 0x20, 0xeb, 0xb2, 0xfa, 0xf0,
  0xf8, 0xd1, 0xe5, 0xe0, 0xfa, 0xd5, 0x1c, 0x02, 0xda, 0x08, 0x0e, 0x05,
  0x1b, 0xd1, 0x19, 0x07, 0xf6, 0xd0, 0x04, 0x13, 0x0d, 0xe3, 0x17, 0x2a,
  0xe0, 0x2a, 0xf4, 0x2c, 0x2a, 0x23, 0xf4, 0x06, 0x27, 0xf1, 0xe6, 0xe9,
  0xf2, 0x36, 0x10, 0x12, 0x1f, 0xf5, 0x34, 0xf0, 0x2a, 0xe9, 0xec, 0x08,
  0x2a, 0xf9, 0x03, 0x11, 0xde, 0x07, 0x0f, 0xe6, 0xee, 0xf1, 0x28, 0xf0,
  0x1b, 0x1f, 0xf4, 0xd3, 0x2d, 0x21, 0x04, 0xf7, 0x13, 0x0b, 0xf0, 0x04,
  0x0c, 0x2e, 0x1d, 0xda, 0xd0, 0xed, 0xd3, 0x12, 0xeb, 0xde, 0x03, 0xe5,
  0xce, 0xd1, 0x00, 0x25, 0xfb, 0x1e, 0xfe, 0xe4, 0xd8, 0xe2, 0xf2, 0xe3,
  0xf1, 0xdc, 0xcb, 0x18, 0xcd, 0xeb, 0xd9, 0x02, 0xf6, 0xef, 0x2b, 0x17,
  0x04, 0xe3, 0xf5, 0xf3, 0x00, 0xf7, 0x0a, 0xcc, 0xd0, 0xd4, 0xf6, 0x10,
  0xf5, 0x1a, 0x18, 0xe8, 0x16, 0x1b, 0x0c, 0x19, 0xd2, 0x21, 0x24, 0x18,
  0xda, 0xf1, 0xdc, 0xf8, 0xe7, 0x0e, 0xd4, 0xe7, 0xe3, 0xf7, 0xf2, 0x24,
  0x30, 0xfb, 0x4b, 0xf0, 0x06, 0xfd, 0x2d, 0x13, 0xd2, 0xc9, 0xf8, 0xe4,
  0x29, 0xdd, 0xff, 0xe5, 0x23, 0x2d, 0x1e, 0xed, 0xf1, 0x0f, 0xfc, 0xea,
  0xf6, 0xf3, 0x12, 0x36, 0x36, 0x26, 0x18, 0xed, 0xf5, 0x04, 0x2f, 0x01,
  0xf8, 0xda, 0xa9, 0xcf, 0xd0, 0xec, 0x1f, 0xfa, 0x1f, 0x29, 0x10, 0x1f,
  0xf7, 0xdc, 0xcf, 0xdb, 0x07, 0xfe, 0xbc, 0x07, 0xe9, 0xe0, 0xd0, 0x2e,
  0xde, 0xc9, 0xfc, 0x07, 0x02, 0x0e, 0xf7, 0xca, 0xf3, 0xcf, 0x37, 0xc9,
  0x27, 0xe3, 0x17, 0xeb, 0x2f, 0xf8, 0xe8, 0x34, 0x07, 0x2e, 0x0f, 0x2a,
  0x18, 0x34, 0xfa, 0x0d, 0x0f, 0x2a, 0x1c, 0x17, 0x36, 0x0f, 0x1c, 0x2f,
  0xf7, 0x0d, 0x41, 0x03, 0x3a, 0x36, 0x18, 0x50, 0x04, 0x2a, 0x4f, 0x22,
  0x21, 0xff, 0xf0, 0x18, 0xfc, 0xe8, 0x2c, 0xe9, 0x15, 0xe9, 0xdd, 0x09,
  0xfd, 0xee, 0x12, 0xf4, 0xf9, 0x10, 0xeb, 0xf9, 0xff, 0xdc, 0x22, 0xed,
  0x28, 0xee, 0xe6, 0xe1, 0x13, 0x27, 0xfd, 0xd3, 0xe7, 0xe8, 0xce, 0x0e,
  0x09, 0x00, 0xf3, 0xe1, 0x06, 0x24, 0x12, 0xfa, 0x04, 0x0a, 0x3e, 0x22,
  0x38, 0x03, 0x33, 0xea, 0x2c, 0xec, 0xf9, 0x1d, 0xf5, 0xf0, 0x10, 0x1e,
  0x09, 0x09, 0x0a, 0x13, 0xfa, 0x2d, 0x3c, 0xef, 0x40, 0x0a, 0xf9, 0x2e,
  0x21, 0x1d, 0xe1, 0xf4, 0xf1, 0x03, 0x01, 0x07, 0xce, 0xe1, 0xeb, 0xda,
  0x11, 0x2b, 0x1d, 0x12, 0x34, 0xf8, 0x2e, 0xe2, 0xe8, 0x12, 0xfc, 0xf6,
  0x15, 0xf8, 0x0b, 0x29, 0x12, 0x2c, 0x37, 0x09, 0x07, 0xe7, 0xcb, 0x19,
  0xe9, 0x1f, 0x27, 0xe4, 0x12, 0x0c, 0x0a, 0x03, 0x0d, 0x16, 0x0a, 0x1a,
  0x24, 0x10, 0x03, 0xed, 0xe2, 0xea, 0x15, 0x0b, 0xdb, 0x2c, 0xf1, 0xe8,
  0xea, 0xfa, 0x26, 0xfb, 0x26, 0xe8, 0x15, 0x25, 0xee, 0xf2, 0x17, 0xea,
  0x22, 0x28, 0x2b, 0x2e, 0x1b, 0x0a, 0xeb, 0x27, 0x19, 0x1d, 0x2d, 0x36,
  0x24, 0x29, 0x1d, 0x1a, 0x2a, 0xf9, 0xe7, 0x15, 0xf2, 0xe5, 0x0a, 0xe8,
  0xe5, 0x03, 0x1a, 0xfd, 0xfd, 0xf1, 0xe8, 0xff, 0x2f, 0xf6, 0xfe, 0x13,
  0x14, 0x0a, 0x16, 0x12, 0xbd, 0xd8, 0x2e, 0x14, 0x26, 0xa9, 0x0e, 0x0b,
  0xe3, 0x12, 0xf6, 0xdb, 0xdb, 0x19, 0xd6, 0xf1, 0xe4, 0xe4, 0x07, 0xf3,
  0xd6, 0x1d, 0xdd, 0xdc, 0xdf, 0x14, 0x2a, 0xf7, 0x03, 0x24, 0xd3, 0xe2,
  0x29, 0x26, 0x1b, 0xe4, 0xe0, 0x14, 0xc8, 0xf6, 0xff, 0xf7, 0xd0, 0xe5,
  0xe4, 0x18, 0x31, 0x13, 0x05, 0xce, 0xf2, 0xce, 0x12, 0xf8, 0x12, 0xd9,
  0xe3, 0x1c, 0xdb, 0x1e, 0xfe, 0xf2, 0xf2, 0xfa, 0xeb, 0x05, 0x0f, 0x2b,
  0x02, 0x31, 0xea, 0x0e, 0xe3, 0xe6, 0xdd, 0x23, 0x06, 0xd5, 0xf8, 0xe0,
  0x2c, 0x02, 0x0f, 0xd6, 0xdd, 0x24, 0x18, 0xc4, 0x13, 0xd3, 0xf5, 0xfe,
  0x15, 0xdd, 0xea, 0x1d, 0x0d, 0xea, 0xe6, 0xd3, 0xdb, 0xdb, 0xe4, 0xf1,
  0xf4, 0x1f, 0x13, 0x25, 0xfd, 0x11, 0x10, 0x01, 0x1b, 0x14, 0x14, 0xf2,
  0x2c, 0x12, 0xe3, 0xfa, 0xdd, 0xe6, 0xf2, 0xdd, 0x13, 0x11, 0x17, 0xf4,
  0x24, 0xd7, 0xd9, 0xeb, 0xf5, 0x05, 0xde, 0x06, 0x19, 0x29, 0xec, 0xee,
  0xe8, 0x30, 0x1a, 0xde, 0xec, 0x1e, 0xfc, 0x2f, 0xcb, 0x04, 0xee, 0xea,
  0xe9, 0xf2, 0x1c, 0x13, 0xed, 0xf7, 0xee, 0xf0, 0xf0, 0x21, 0x24, 0x05,
  0xe8, 0xed, 0xde, 0x05, 0xfe, 0x27, 0xd9, 0xd5, 0xee, 0xfa, 0xde, 0xd5,
  0xf3, 0xde, 0x26, 0x03, 0x13, 0xee, 0x2b, 0xfc, 0x29, 0x03, 0xfa, 0xfb,
  0x2b, 0xf3, 0x14, 0xe2, 0xf4, 0x26, 0x05, 0xf1, 0xef, 0xeb, 0xfd, 0xfe,
  0x24, 0x31, 0xec, 0x15, 0xdc, 0x15, 0x2e, 0xdf, 0x00, 0x03, 0x11, 0xdb,
  0x2d, 0x28, 0x10, 0x08, 0xe4, 0xe1, 0xfd, 0xf4, 0x17, 0x29, 0xf1, 0x09,
  0x0c, 0xe4, 0x20, 0xe5, 0x0f, 0x1e, 0xe6, 0xdb, 0x11, 0xf9, 0x20, 0xff,
  0x29, 0x2b, 0xee, 0x1d, 0xf2, 0x20, 0x1b, 0xdc, 0x2c, 0x1f, 0xeb, 0x10,
  0x1c, 0xf0, 0x14, 0xf9, 0xef, 0x2d, 0x09, 0xe7, 0x07, 0x14, 0x05, 0xc8,
  0x15, 0xef, 0xfa, 0xc0, 0xd4, 0x11, 0x21, 0x2e, 0xea, 0xf2, 0xf8, 0xf9,
  0x23, 0x23, 0xf0, 0x00, 0x08, 0x2d, 0xf3, 0x02, 0x16, 0xec, 0xe6, 0x12,
  0x00, 0xd6, 0xdb, 0xf2, 0xdd, 0x29, 0x16, 0xe0, 0x22, 0xda, 0xf8, 0xfb,
  0x22, 0xda, 0x0b, 0x17, 0x02, 0xf7, 0x0c, 0xf7, 0xe9, 0x08, 0xfc, 0x2d,
  0xf0, 0xe7, 0xec, 0xfb, 0xd8, 0x21, 0x05, 0x04, 0x15, 0x1d, 0x09, 0x06,
  0x0d, 0xef, 0xea, 0x01, 0x24, 0xff, 0xd5, 0xe9, 0xec, 0xd9, 0x07, 0xdf,
  0xfd, 0xee, 0xfe, 0x2a, 0xf2, 0x04, 0xd7, 0x05, 0x03, 0x10, 0x0f, 0xe2,
  0xef, 0xd7, 0xea, 0x0b, 0x06, 0x2a, 0xdc, 0x09, 0x29, 0x02, 0xd8, 0xd3,
  0xd9, 0x31, 0xe4, 0xe8, 0xdd, 0x0d, 0xec, 0x25, 0xd9, 0xec, 0xe6, 0xd4,
  0x2c, 0x00, 0x4f, 0xff, 0xf7, 0x2f, 0xfe, 0x64, 0x7f, 0x51, 0x69, 0x37,
  0x3f, 0x59, 0x14, 0x3b, 0x05, 0xf8, 0x11, 0x32, 0xfd, 0xf1, 0x07, 0x01,
  0xf3, 0x41, 0x1e, 0xef, 0x18, 0xda, 0xdc, 0xeb, 0xe8, 0x33, 0x23, 0x05,
  0xf5, 0xf2, 0x27, 0x36, 0xcd, 0xd1, 0xe4, 0x0f, 0x64, 0x59, 0x3b, 0x62,
  0x0d, 0x38, 0x15, 0xd7, 0x12, 0xdb, 0xc9, 0x16, 0xc1, 0xe2, 0xf8, 0x05,
  0x22, 0xe0, 0x22, 0x1e, 0x00, 0x12, 0x0c, 0x02, 0x0d, 0xdc, 0xff, 0xe2,
  0xc1, 0x09, 0xf2, 0x06, 0x0f, 0x26, 0xeb, 0xfd, 0x1b, 0x28, 0x14, 0x18,
  0x37, 0xee, 0x0f, 0xfd, 0x1f, 0x11, 0x0a, 0x1c, 0x16, 0xe5, 0x0a, 0xe9,
  0xd7, 0x1b, 0x1d, 0xcb, 0x0f, 0xdc, 0xde, 0xd6, 0xde, 0xdb, 0xe1, 0xe2,
  0xec, 0xfb, 0xc1, 0xba, 0xd1, 0x09, 0xf3, 0xeb, 0x14, 0x08, 0x25, 0x0b,
  0x2a, 0x08, 0x04, 0x04, 0x2a, 0x25, 0x02, 0x34, 0x0e, 0xf6, 0x0f, 0x0a,
  0x1c, 0x17, 0xfd, 0x0d, 0xdf, 0xd2, 0xdd, 0x16, 0x17, 0x0f, 0xee, 0xfe,
  0x1b, 0xf4, 0xff, 0xfc, 0xe3, 0xcb, 0x13, 0xe9, 0x0e, 0xf4, 0x09, 0x05,
  0x0c, 0xf1, 0x28, 0x2b, 0x30, 0x26, 0xfa, 0xed, 0x05, 0x10, 0x12, 0xf4,
  0x09, 0x18, 0x05, 0x3a, 0x1f, 0x10, 0x0b, 0xf7, 0xe1, 0x01, 0xe5, 0x2a,
  0xe7, 0xdc, 0x0a, 0xc7, 0xec, 0xe5, 0x1e, 0x35, 0xfe, 0xd8, 0xf6, 0xf4,
  0x05, 0x4b, 0x28, 0xfb, 0x0b, 0x10, 0x00, 0x21, 0x20, 0xcd, 0xd8, 0xeb,
  0xca, 0xf1, 0xee, 0xe3, 0x2a, 0x08, 0x11, 0xfa, 0x12, 0xf9, 0xf0, 0x0f,
  0x04, 0xcc, 0x12, 0x26, 0xfe, 0xff, 0xd3, 0xfc, 0xf5, 0xda, 0x03, 0xf9,
  0xd7, 0xd6, 0xca, 0xdd, 0xdf, 0x07, 0x19, 0x24, 0xd6, 0xed, 0xd7, 0xe8,
  0xd7, 0x28, 0xe3, 0xf5, 0x0b, 0x19, 0xf9, 0x06, 0xd7, 0xd8, 0xe7, 0xe2,
  0xe3, 0x1a, 0xeb, 0x1f, 0xe7, 0xd7, 0x25, 0x13, 0xea, 0x3f, 0xe6, 0x02,
  0x26, 0x08, 0x15, 0x23, 0xf7, 0x34, 0xfb, 0xe0, 0x07, 0xe4, 0x39, 0x11,
  0x09, 0xeb, 0x2e, 0x1b, 0xf3, 0xe8, 0x21, 0xe8, 0xf4, 0x12, 0x35, 0xfa,
  0x14, 0x00, 0x0c, 0xf6, 0x3c, 0x1f, 0x01, 0xfc, 0x2e, 0x1c, 0xed, 0x01,
  0x0d, 0xfd, 0x04, 0xe1, 0xe5, 0xe1, 0xde, 0x2b, 0x18, 0xd9, 0x16, 0x0e,
  0xe8, 0x12, 0xe6, 0x27, 0xdf, 0xe9, 0x08, 0x08, 0xf4, 0xf3, 0xf2, 0xdd,
  0xdf, 0x17, 0xec, 0x0d, 0xdd, 0x04, 0x2d, 0x0a, 0x2b, 0x32, 0x29, 0x37,
  0x09, 0x0f, 0xfd, 0xf6, 0xed, 0xf4, 0x1b, 0xfb, 0x19, 0x1f, 0x23, 0x01,
  0x16, 0x44, 0xeb, 0xfe, 0xef, 0x3a, 0x26, 0xd3, 0x2c, 0x20, 0x19, 0xda,
  0x07, 0xf2, 0xf5, 0x03, 0xfe, 0x12, 0xe0, 0xfb, 0x15, 0xe1, 0x0d, 0x05,
  0x0d, 0x2f, 0x33, 0x2f, 0xeb, 0x19, 0x0c, 0x49, 0x4b, 0x33, 0x33, 0x10,
  0x24, 0x20, 0xf7, 0x0f, 0x0d, 0x32, 0x07, 0xfe, 0x31, 0x32, 0xd9, 0x15,
  0x14, 0xf7, 0xef, 0xd1, 0x15, 0x11, 0xe6, 0x15, 0x1b, 0xe0, 0xdf, 0xeb,
  0x31, 0x21, 0x0c, 0xfc, 0x0c, 0x15, 0x06, 0xff, 0x28, 0x1b, 0x1a, 0x31,
  0x38, 0x1c, 0xfb, 0x0d, 0xe3, 0x0d, 0xea, 0x25, 0xe0, 0x37, 0xf1, 0x20,
  0x17, 0xdc, 0xd9, 0xe6, 0x12, 0x13, 0xf3, 0xfb, 0xf0, 0xe0, 0x14, 0xe6,
  0xe7, 0x00, 0x1e, 0xd4, 0xde, 0xe9, 0x12, 0x1f, 0xff, 0xf3, 0xde, 0x06,
  0xd4, 0xd8, 0xfd, 0xf1, 0x25, 0x07, 0xdf, 0x03, 0x07, 0xfa, 0xda, 0x13,
  0xd6, 0x0b, 0xfc, 0x11, 0x06, 0xe5, 0xd6, 0x21, 0x17, 0x08, 0xf8, 0xdc,
  0xe3, 0x13, 0xf6, 0xed, 0xea, 0xe8, 0xef, 0xca, 0x41, 0x16, 0x15, 0x07,
  0xf4, 0xdb, 0xdd, 0xe2, 0x18, 0xd6, 0x0d, 0xd7, 0x0b, 0x0f, 0xd0, 0xf3,
  0xd6, 0xed, 0xf4, 0xd8, 0x0e, 0xf2, 0xf3, 0xee, 0x06, 0x1d, 0x17, 0xdf,
  0xd1, 0x00, 0x12, 0x18, 0xf9, 0x24, 0xe5, 0xd0, 0xf3, 0x42, 0xde, 0xf9,
  0xdc, 0x17, 0xea, 0x1b, 0xf4, 0x13, 0xfe, 0xec, 0xe2, 0xf1, 0x03, 0xe5,
  0x1c, 0xeb, 0x0b, 0x11, 0xd3, 0xd6, 0xc7, 0x13, 0xeb, 0x1e, 0x07, 0xf2,
  0xff, 0x02, 0x10, 0xdd, 0x0f, 0x09, 0x3b, 0xd4, 0xd6, 0xee, 0x21, 0x09,
  0x02, 0xd9, 0xba, 0xcd, 0xf7, 0x35, 0xed, 0xfa, 0x1e, 0x0d, 0xe3, 0xd6,
  0x12, 0xf1, 0xd0, 0x01, 0xd8, 0x25, 0x05, 0xed, 0x1a, 0x10, 0x10, 0x01,
  0x09, 0x23, 0x26, 0x27, 0x09, 0x1f, 0xf1, 0x1c, 0xef, 0x16, 0xe3, 0x26,
  0xd3, 0xcd, 0x0a, 0x1c, 0x01, 0x13, 0xfc, 0xe9, 0x15, 0x0b, 0xfa, 0xf1,
  0x0f, 0x06, 0xe7, 0x16, 0xeb, 0xd3, 0xee, 0x01, 0xe6, 0xde, 0xe5, 0xe7,
  0xfa, 0x04, 0xea, 0xed, 0x0a, 0x2b, 0x1e, 0x0c, 0xd1, 0x93, 0xd5, 0x1f,
  0xfc, 0xf6, 0xe7, 0x14, 0x00, 0x1b, 0x27, 0xed, 0xef, 0x33, 0xd5, 0x21,
  0xdd, 0x13, 0xe9, 0xe9, 0xff, 0xe7, 0xf4, 0x20, 0xe2, 0x1b, 0xe5, 0x22,
  0xf3, 0x07, 0x16, 0xd4, 0xf4, 0xf6, 0x18, 0xcf, 0x76, 0xfa, 0xff, 0xff,
  0x04, 0x00, 0x00, 0x00, 0xa0, 0x00, 0x00, 0x00, 0x09, 0x00, 0x00, 0x00,
  0xee, 0xff, 0xff, 0xff, 0x35, 0x00, 0x00, 0x00, 0x0a, 0x00, 0x00, 0x00,
  0x0c, 0x00, 0x00, 0x00, 0xfc, 0xff, 0xff, 0xff, 0x07, 0x00, 0x00, 0x00,
  0x10, 0x00, 0x00, 0x00, 0xfe, 0xff, 0xff, 0xff, 0xfb, 0xff, 0xff, 0xff,
  0xea, 0xff, 0xff, 0xff, 0xfd, 0xff, 0xff, 0xff, 0xdd, 0xff, 0xff, 0xff,
  0xe7, 0xff, 0xff, 0xff, 0x13, 0x00, 0x00, 0x00, 0x07, 0x00, 0x00, 0x00,
  0x07, 0x00, 0x00, 0x00, 0x23, 0x00, 0x00, 0x00, 0xfd, 0xff, 0xff, 0xff,
  0xf1, 0xff, 0xff, 0xff, 0x04, 0x00, 0x00, 0x00, 0x16, 0x00, 0x00, 0x00,
  0x27, 0x00, 0x00, 0x00, 0x00, 0x00, 0x00, 0x00, 0xe2, 0xff, 0xff, 0xff,
  0x00, 0x00, 0x00, 0x00, 0x1b, 0x00, 0x00, 0x00, 0x00, 0x00, 0x00, 0x00,
  0x03, 0x00, 0x00, 0x00, 0xf7, 0xff, 0xff, 0xff, 0x11, 0x00, 0x00, 0x00,
  0xf9, 0xff, 0xff, 0xff, 0xf5, 0xff, 0xff, 0xff, 0x11, 0x00, 0x00, 0x00,
  0xf5, 0xff, 0xff, 0xff, 0x02, 0x00, 0x00, 0x00, 0x01, 0x00, 0x00, 0x00,
  0x13, 0x00, 0x00, 0x00, 0x2c, 0x00, 0x00, 0x00, 0xe3, 0xff, 0xff, 0xff,
  0x22, 0xfb, 0xff, 0xff, 0x04, 0x00, 0x00, 0x00, 0x20, 0x03, 0x00, 0x00,
  0x1b, 0xcc, 0x7f, 0x50, 0xce, 0xf7, 0x27, 0x30, 0x01, 0xcf, 0x39, 0x2f,
  0xbd, 0x37, 0xd5, 0x30, 0xbf, 0x42, 0xdd, 0x28, 0x18, 0xe9, 0xf6, 0x0d,
  0xf0, 0xca, 0xe1, 0xf3, 0xf2, 0xad, 0x2e, 0x06, 0xe4, 0xe3, 0xbf, 0xe7,
  0x38, 0x44, 0x23, 0xf0, 0xd3, 0x33, 0x34, 0xdd, 0xb9, 0xcf, 0x30, 0x28,
  0xdc, 0xda, 0xfc, 0xbf, 0x59, 0xd0, 0xcf, 0x6e, 0xdd, 0x06, 0xdc, 0x35,
  0x28, 0xfa, 0xb2, 0x2a, 0x5c, 0xaf, 0xf1, 0x1a, 0x11, 0x2a, 0xff, 0x55,
  0x42, 0x44, 0x53, 0xb4, 0x4c, 0xfa, 0xc9, 0x0f, 0xee, 0xfb, 0xe6, 0xe0,
  0xd9, 0x2a, 0xf6, 0xff, 0x3d, 0xb5, 0xd2, 0xdd, 0x4a, 0xdf, 0xfe, 0x0b,
  0xdc, 0xfc, 0xd4, 0xb9, 0x39, 0x4c, 0x2b, 0xae, 0x48, 0xdf, 0x49, 0x40,
  0xcf, 0x20, 0xb3, 0x6b, 0xf4, 0x4a, 0xc1, 0xc2, 0x25, 0x43, 0xfc, 0x02,
  0x20, 0x4a, 0xb8, 0xd5, 0xe5, 0x48, 0xd5, 0x08, 0xed, 0x4a, 0x61, 0xb0,
  0x13, 0x0c, 0x0c, 0x33, 0x0f, 0xf9, 0x93, 0x29, 0xcc, 0x06, 0x9f, 0x02,
  0xb7, 0x34, 0xcc, 0xc5, 0xca, 0xc5, 0xa4, 0x0c, 0xba, 0xed, 0xdc, 0xb5,
  0xcc, 0xcb, 0xbd, 0xf1, 0xee, 0xbd, 0xd0, 0xf2, 0xa3, 0x44, 0xec, 0x2e,
  0xde, 0x36, 0x9e, 0x4d, 0xe2, 0xfb, 0x37, 0x31, 0xcc, 0x32, 0xda, 0xf7,
  0xd6, 0x59, 0xfe, 0xfc, 0x28, 0xd5, 0x35, 0x08, 0xf1, 0x1c, 0xd0, 0xa7,
  0xff, 0xbe, 0x21, 0x5f, 0x14, 0x77, 0x59, 0x27, 0xae, 0xc0, 0xe9, 0xfe,
  0xaa, 0x35, 0xdf, 0xee, 0xe5, 0xd7, 0xab, 0x24, 0xe8, 0xf2, 0x1c, 0xaf,
  0x0a, 0x1f, 0xc3, 0x05, 0x40, 0xc9, 0xbb, 0xb6, 0xc2, 0x3a, 0xe1, 0x3f,
  0x21, 0x13, 0x56, 0xbb, 0x16, 0x1d, 0x2f, 0xee, 0x28, 0xfb, 0x2f, 0xd8,
  0x47, 0xdb, 0x4a, 0x0b, 0xd9, 0x3c, 0xcc, 0xfe, 0x2c, 0xec, 0x02, 0x0d,
  0x2b, 0xd1, 0x8f, 0xd3, 0xf5, 0x3c, 0x16, 0x3d, 0xf8, 0xfe, 0xc7, 0x19,
  0xcc, 0x38, 0x40, 0xed, 0xc3, 0xe6, 0xfc, 0xba, 0x15, 0x45, 0xec, 0x42,
  0x16, 0xc3, 0x03, 0x44, 0x06, 0x2e, 0x14, 0x46, 0x55, 0xc3, 0x39, 0xb5,
  0x3d, 0x00, 0x28, 0xd9, 0x34, 0xe6, 0xb8, 0xe0, 0x45, 0xb0, 0x1d, 0x4b,
  0x4e, 0x2c, 0xb9, 0xc3, 0x47, 0xb4, 0xe6, 0xbb, 0x40, 0xc3, 0x41, 0x65,
  0xa5, 0xcc, 0x5b, 0xdd, 0xa4, 0x2f, 0xcd, 0x31, 0x31, 0x13, 0x3b, 0xad,
  0xe5, 0x41, 0xf7, 0xe9, 0xc1, 0xe6, 0x16, 0x0f, 0x4b, 0x44, 0x21, 0xc6,
  0x08, 0xad, 0x05, 0xb4, 0xab, 0xdd, 0x23, 0x3a, 0x1e, 0x10, 0xfb, 0x01,
  0x07, 0x15, 0x4a, 0x14, 0xad, 0x16, 0x2c, 0x4f, 0x24, 0x02, 0xba, 0xb2,
  0x2a, 0x03, 0x4a, 0xf1, 0x54, 0xcf, 0xb9, 0x36, 0xf3, 0xe9, 0x44, 0xac,
  0x01, 0xeb, 0xfc, 0x3b, 0xe9, 0xe2, 0xfa, 0xec, 0x50, 0x0c, 0xaa, 0xeb,
  0xf4, 0x01, 0x2e, 0xe3, 0xd8, 0xd1, 0x24, 0x2f, 0xe5, 0xb8, 0xb6, 0xa2,
  0x34, 0x25, 0xcf, 0x0e, 0xa5, 0x13, 0x07, 0xb0, 0xde, 0xee, 0x53, 0xd7,
  0xed, 0x12, 0xd1, 0xeb, 0x2f, 0x45, 0x39, 0x13, 0xc0, 0xa8, 0xfe, 0xd1,
  0x0c, 0xe7, 0xa3, 0x19, 0x4f, 0xd3, 0x5c, 0xb7, 0xd3, 0x21, 0xbe, 0xed,
  0x19, 0x35, 0x1d, 0x01, 0x10, 0xbe, 0x13, 0xb3, 0xb5, 0x2a, 0xfa, 0xb3,
  0x18, 0xba, 0x22, 0x5a, 0x18, 0xee, 0xbf, 0x16, 0x0f, 0xc8, 0x02, 0x11,
  0xc9, 0x13, 0x44, 0x06, 0x5b, 0x33, 0x15, 0xf3, 0x10, 0x40, 0x04, 0x10,
  0x45, 0xe4, 0x0e, 0x2b, 0x0e, 0xfc, 0x2e, 0xe6, 0xfa, 0xc1, 0x34, 0xb0,
  0xb6, 0x41, 0xe8, 0x0e, 0xf8, 0x4a, 0xc2, 0xd3, 0xb9, 0xca, 0x1e, 0x94,
  0xd9, 0x1f, 0x47, 0x40, 0x2a, 0x29, 0x08, 0x18, 0xc7, 0x42, 0x38, 0xb4,
  0xf8, 0xdd, 0x5e, 0xff, 0xe7, 0x00, 0xcd, 0x24, 0x0f, 0x4f, 0x1a, 0x14,
  0xf5, 0xb7, 0xf2, 0xa2, 0x07, 0xeb, 0x5c, 0xd6, 0x2b, 0x0f, 0xaf, 0xe8,
  0xd9, 0x3f, 0x2f, 0xd2, 0xc7, 0x1a, 0x22, 0x48, 0x41, 0x0a, 0x32, 0xed,
  0xfe, 0xe3, 0x25, 0x3c, 0x00, 0x03, 0xf6, 0x3a, 0xbe, 0x21, 0x34, 0xc2,
  0xe8, 0xe5, 0x30, 0xde, 0xef, 0xf2, 0x17, 0x48, 0x31, 0xe2, 0x24, 0x11,
  0x3e, 0x2a, 0x25, 0xc5, 0x48, 0x31, 0xe2, 0xc3, 0xca, 0x26, 0xe6, 0x31,
  0x0a, 0x3c, 0xbc, 0x0c, 0xcd, 0x08, 0xd8, 0x2c, 0x03, 0xfd, 0x01, 0x38,
  0x15, 0xfc, 0x18, 0x3d, 0xde, 0x5c, 0xba, 0x16, 0x25, 0xeb, 0x4f, 0xe2,
  0x36, 0x28, 0xae, 0x41, 0xeb, 0x14, 0x2d, 0xcd, 0x2d, 0x07, 0x35, 0x14,
  0x10, 0x03, 0xc4, 0x3a, 0xb5, 0x4f, 0x20, 0x4e, 0xde, 0xfd, 0x54, 0xcf,
  0xe5, 0xfa, 0x35, 0xbf, 0xf7, 0x27, 0x44, 0xb9, 0x57, 0x4b, 0x28, 0xc1,
  0x34, 0x7a, 0xcb, 0xc1, 0x1f, 0xc5, 0x29, 0xde, 0xfe, 0x1e, 0xe2, 0xf0,
  0xf3, 0xec, 0xe9, 0xac, 0x16, 0x3d, 0x3b, 0x0d, 0xcf, 0xda, 0xe4, 0xb0,
  0x46, 0x13, 0xf4, 0x29, 0xad, 0xec, 0x2e, 0xe9, 0xb0, 0x4e, 0xcc, 0xe5,
  0x38, 0x04, 0x06, 0x06, 0x16, 0x11, 0xfa, 0xb3, 0x44, 0x31, 0x3b, 0xaf,
  0xe9, 0x52, 0xd4, 0x26, 0x04, 0x35, 0x2b, 0xc9, 0x40, 0x47, 0xcc, 0xf5,
  0xc6, 0xcb, 0x4a, 0xea, 0x2b, 0xf4, 0xc5, 0xd2, 0xde, 0xb8, 0xc5, 0xac,
  0xde, 0x31, 0xd4, 0x3f, 0x10, 0xf0, 0xfc, 0x20, 0xb3, 0x07, 0xaf, 0x2d,
  0x16, 0x1d, 0x14, 0xe6, 0x02, 0x14, 0xab, 0x42, 0x33, 0xe9, 0xb6, 0x1d,
  0xbd, 0xaf, 0xe1, 0x38, 0x04, 0xae, 0x45, 0x4e, 0xcb, 0xde, 0xfb, 0x4a,
  0x42, 0x50, 0xa7, 0x10, 0x41, 0x37, 0x4a, 0x02, 0xa9, 0x38, 0xf3, 0xfc,
  0xe9, 0x44, 0x42, 0x41, 0xc7, 0xfa, 0x42, 0x13, 0xab, 0x3b, 0xe5, 0xf3,
  0x40, 0x44, 0xa7, 0x29, 0xc5, 0x01, 0xc4, 0xf9, 0xeb, 0x34, 0xe3, 0x38,
  0x27, 0xb1, 0x3b, 0x4c, 0xef, 0xe3, 0x06, 0x47, 0xab, 0x3b, 0xda, 0x4e,
  0x1e, 0xf1, 0x02, 0x30, 0x45, 0x58, 0xda, 0x25, 0x4e, 0xfe, 0xff, 0xff,
  0x04, 0x00, 0x00, 0x00, 0x50, 0x00, 0x00, 0x00, 0x7c, 0x00, 0x00, 0x00,
  0x4f, 0xff, 0xff, 0xff, 0xf6, 0xff, 0xff, 0xff, 0x09, 0x00, 0x00, 0x00,
  0x7f, 0x00, 0x00, 0x00, 0x11, 0x00, 0x00, 0x00, 0x57, 0xff, 0xff, 0xff,
  0xb7, 0xff, 0xff, 0xff, 0xa3, 0xff, 0xff, 0xff, 0xd5, 0x00, 0x00, 0x00,
  0xe3, 0xff, 0xff, 0xff, 0xf9, 0x00, 0x00, 0x00, 0xa8, 0x00, 0x00, 0x00,
  0x6f, 0x00, 0x00, 0x00, 0xfb, 0x00, 0x00, 0x00, 0x0a, 0x00, 0x00, 0x00,
  0xaa, 0xff, 0xff, 0xff, 0x08, 0x00, 0x00, 0x00, 0x39, 0x00, 0x00, 0x00,
  0xa5, 0xff, 0xff, 0xff, 0xaa, 0xfe, 0xff, 0xff, 0x04, 0x00, 0x00, 0x00,
  0x8c, 0x00, 0x00, 0x00, 0x40, 0xfa, 0xc4, 0xb8, 0xe5, 0xb3, 0x2b, 0x3a,
  0xf8, 0x77, 0xa2, 0x67, 0xc1, 0x40, 0xcd, 0xcc, 0xa4, 0x3b, 0x26, 0xc2,
  0x34, 0x6b, 0x31, 0xa4, 0x05, 0x25, 0xe1, 0x19, 0x1b, 0xee, 0xb8, 0x32,
  0xf3, 0x09, 0x09, 0xb2, 0x32, 0xc1, 0xa7, 0x3a, 0xb9, 0xb5, 0x09, 0xc9,
  0x45, 0x0c, 0x03, 0x95, 0x25, 0x3c, 0x95, 0x60, 0x33, 0xaa, 0x33, 0x45,
  0xa8, 0x1a, 0xfa, 0xe4, 0x09, 0xb3, 0xa6, 0x81, 0xe8, 0xc6, 0x15, 0x59,
  0x61, 0x42, 0xf6, 0x0a, 0xc3, 0xc8, 0xf8, 0x3b, 0xbf, 0xff, 0x28, 0xc0,
  0x40, 0xff, 0x42, 0xd6, 0x6f, 0xb2, 0x32, 0xf1, 0xa9, 0xf4, 0x9e, 0xaf,
  0xc5, 0x0f, 0xa0, 0x51, 0x3e, 0xc1, 0xd2, 0x37, 0xd3, 0xe5, 0x15, 0x6c,
  0xb2, 0x24, 0x16, 0x12, 0x2f, 0xfc, 0xd3, 0x50, 0x0b, 0xfb, 0xc0, 0x01,
  0x3f, 0xd9, 0x45, 0x3e, 0x45, 0x9e, 0xc6, 0x12, 0x27, 0x48, 0xd2, 0xbe,
  0x43, 0xfb, 0x18, 0x35, 0x1e, 0x45, 0x41, 0x9d, 0x11, 0xb2, 0x46, 0xc7,
  0x42, 0xff, 0xff, 0xff, 0x04, 0x00, 0x00, 0x00, 0x1c, 0x00, 0x00, 0x00,
  0x0b, 0x01, 0x00, 0x00, 0x7a, 0xff, 0xff, 0xff, 0x8f, 0x00, 0x00, 0x00,
  0x62, 0xff, 0xff, 0xff, 0xc7, 0xff, 0xff, 0xff, 0xe8, 0xfe, 0xff, 0xff,
  0x76, 0x00, 0x00, 0x00, 0x38, 0xff, 0xff, 0xff, 0x3c, 0xff, 0xff, 0xff,
  0x0f, 0x00, 0x00, 0x00, 0x4d, 0x4c, 0x49, 0x52, 0x20, 0x43, 0x6f, 0x6e,
  0x76, 0x65, 0x72, 0x74, 0x65, 0x64, 0x2e, 0x00, 0x01, 0x00, 0x00, 0x00,
  0x14, 0x00, 0x00, 0x00, 0x00, 0x00, 0x0e, 0x00, 0x18, 0x00, 0x14, 0x00,
  0x10, 0x00, 0x0c, 0x00, 0x08, 0x00, 0x04, 0x00, 0x0e, 0x00, 0x00, 0x00,
  0x14, 0x00, 0x00, 0x00, 0x1c, 0x00, 0x00, 0x00, 0x28, 0x01, 0x00, 0x00,
  0x2c, 0x01, 0x00, 0x00, 0x30, 0x01, 0x00, 0x00, 0x04, 0x00, 0x00, 0x00,
  0x6d, 0x61, 0x69, 0x6e, 0x00, 0x00, 0x00, 0x00, 0x04, 0x00, 0x00, 0x00,
  0xd0, 0x00, 0x00, 0x00, 0x88, 0x00, 0x00, 0x00, 0x50, 0x00, 0x00, 0x00,
  0x14, 0x00, 0x00, 0x00, 0x00, 0x00, 0x0e, 0x00, 0x1a, 0x00, 0x14, 0x00,
  0x10, 0x00, 0x0c, 0x00, 0x0b, 0x00, 0x04, 0x00, 0x0e, 0x00, 0x00, 0x00,
  0x1c, 0x00, 0x00, 0x00, 0x00, 0x00, 0x00, 0x09, 0x1c, 0x00, 0x00, 0x00,
  0x20, 0x00, 0x00, 0x00, 0x01, 0x00, 0x00, 0x00, 0x00, 0x00, 0x06, 0x00,
  0x08, 0x00, 0x04, 0x00, 0x06, 0x00, 0x00, 0x00, 0x00, 0x00, 0x80, 0x3f,
  0x01, 0x00, 0x00, 0x00, 0x0a, 0x00, 0x00, 0x00, 0x01, 0x00, 0x00, 0x00,
  0x09, 0x00, 0x00, 0x00, 0x96, 0xff, 0xff, 0xff, 0x14, 0x00, 0x00, 0x00,
  0x00, 0x00, 0x00, 0x08, 0x10, 0x00, 0x00, 0x00, 0x14, 0x00, 0x00, 0x00,
  0x04, 0x00, 0x04, 0x00, 0x04, 0x00, 0x00, 0x00, 0x01, 0x00, 0x00, 0x00,
  0x09, 0x00, 0x00, 0x00, 0x03, 0x00, 0x00, 0x00, 0x08, 0x00, 0x00, 0x00,
  0x02, 0x00, 0x00, 0x00, 0x01, 0x00, 0x00, 0x00, 0xca, 0xff, 0xff, 0xff,
  0x10, 0x00, 0x00, 0x00, 0x00, 0x00, 0x00, 0x08, 0x10, 0x00, 0x00, 0x00,
  0x14, 0x00, 0x00, 0x00, 0xba, 0xff, 0xff, 0xff, 0x00, 0x00, 0x00, 0x01,
  0x01, 0x00, 0x00, 0x00, 0x08, 0x00, 0x00, 0x00, 0x03, 0x00, 0x00, 0x00,
  0x07, 0x00, 0x00, 0x00, 0x04, 0x00, 0x00, 0x00, 0x03, 0x00, 0x00, 0x00,
  0x00, 0x00, 0x0e, 0x00, 0x16, 0x00, 0x00, 0x00, 0x10, 0x00, 0x0c, 0x00,
  0x0b, 0x00, 0x04, 0x00, 0x0e, 0x00, 0x00, 0x00, 0x18, 0x00, 0x00, 0x00,
  0x00, 0x00, 0x00, 0x08, 0x18, 0x00, 0x00, 0x00, 0x1c, 0x00, 0x00, 0x00,
  0x00, 0x00, 0x06, 0x00, 0x08, 0x00, 0x07, 0x00, 0x06, 0x00, 0x00, 0x00,
  0x00, 0x00, 0x00, 0x01, 0x01, 0x00, 0x00, 0x00, 0x07, 0x00, 0x00, 0x00,
  0x03, 0x00, 0x00, 0x00, 0x00, 0x00, 0x00, 0x00, 0x06, 0x00, 0x00, 0x00,
  0x05, 0x00, 0x00, 0x00, 0x01, 0x00, 0x00, 0x00, 0x0a, 0x00, 0x00, 0x00,
  0x01, 0x00, 0x00, 0x00, 0x00, 0x00, 0x00, 0x00, 0x0b, 0x00, 0x00, 0x00,
  0xf8, 0x04, 0x00, 0x00, 0x68, 0x04, 0x00, 0x00, 0xfc, 0x03, 0x00, 0x00,
  0x80, 0x03, 0x00, 0x00, 0x14, 0x03, 0x00, 0x00, 0xa0, 0x02, 0x00, 0x00,
  0x34, 0x02, 0x00, 0x00, 0x98, 0x01, 0x00, 0x00, 0xf4, 0x00, 0x00, 0x00,
  0x70, 0x00, 0x00, 0x00, 0x04, 0x00, 0x00, 0x00, 0x4a, 0xfb, 0xff, 0xff,
  0x00, 0x00, 0x00, 0x01, 0x14, 0x00, 0x00, 0x00, 0x30, 0x00, 0x00, 0x00,
  0x0b, 0x00, 0x00, 0x00, 0x00, 0x00, 0x00, 0x09, 0x44, 0x00, 0x00, 0x00,
  0x34, 0xfb, 0xff, 0xff, 0x08, 0x00, 0x00, 0x00, 0x10, 0x00, 0x00, 0x00,
  0x01, 0x00, 0x00, 0x00, 0x80, 0xff, 0xff, 0xff, 0xff, 0xff, 0xff, 0xff,
  0x01, 0x00, 0x00, 0x00, 0x00, 0x00, 0x80, 0x3b, 0x19, 0x00, 0x00, 0x00,
  0x53, 0x74, 0x61, 0x74, 0x65, 0x66, 0x75, 0x6c, 0x50, 0x61, 0x72, 0x74,
  0x69, 0x74, 0x69, 0x6f, 0x6e, 0x65, 0x64, 0x43, 0x61, 0x6c, 0x6c, 0x3a,
  0x30, 0x00, 0x00, 0x00, 0x02, 0x00, 0x00, 0x00, 0x01, 0x00, 0x00, 0x00,
  0x07, 0x00, 0x00, 0x00, 0xb2, 0xfb, 0xff, 0xff, 0x00, 0x00, 0x00, 0x01,
  0x14, 0x00, 0x00, 0x00, 0x30, 0x00, 0x00, 0x00, 0x0a, 0x00, 0x00, 0x00,
  0x00, 0x00, 0x00, 0x09, 0x5c, 0x00, 0x00, 0x00, 0x9c, 0xfb, 0xff, 0xff,
  0x08, 0x00, 0x00, 0x00, 0x10, 0x00, 0x00, 0x00, 0x01, 0x00, 0x00, 0x00,
  0xe6, 0xff, 0xff, 0xff, 0xff, 0xff, 0xff, 0xff, 0x01, 0x00, 0x00, 0x00,
  0x6f, 0x3f, 0xd3, 0x3d, 0x32, 0x00, 0x00, 0x00, 0x73, 0x65, 0x71, 0x75,
  0x65, 0x6e, 0x74, 0x69, 0x61, 0x6c, 0x2f, 0x79, 0x5f, 0x70, 0x72, 0x65,
  0x64, 0x2f, 0x4d, 0x61, 0x74, 0x4d, 0x75, 0x6c, 0x3b, 0x73, 0x65, 0x71,
  0x75, 0x65, 0x6e, 0x74, 0x69, 0x61, 0x6c, 0x2f, 0x79, 0x5f, 0x70, 0x72,
  0x65, 0x64, 0x2f, 0x42, 0x69, 0x61, 0x73, 0x41, 0x64, 0x64, 0x00, 0x00,
  0x02, 0x00, 0x00, 0x00, 0x01, 0x00, 0x00, 0x00, 0x07, 0x00, 0x00, 0x00,
  0x32, 0xfc, 0xff, 0xff, 0x00, 0x00, 0x00, 0x01, 0x14, 0x00, 0x00, 0x00,
  0x34, 0x00, 0x00, 0x00, 0x09, 0x00, 0x00, 0x00, 0x00, 0x00, 0x00, 0x09,
  0x7c, 0x00, 0x00, 0x00, 0x1c, 0xfc, 0xff, 0xff, 0x08, 0x00, 0x00, 0x00,
  0x14, 0x00, 0x00, 0x00, 0x01, 0x00, 0x00, 0x00, 0x80, 0xff, 0xff, 0xff,
  0xff, 0xff, 0xff, 0xff, 0x00, 0x00, 0x00, 0x00, 0x01, 0x00, 0x00, 0x00,
  0xd1, 0x51, 0x8d, 0x3d, 0x4c, 0x00, 0x00, 0x00, 0x73, 0x65, 0x71, 0x75,
  0x65, 0x6e, 0x74, 0x69, 0x61, 0x6c, 0x2f, 0x64, 0x65, 0x6e, 0x73, 0x65,
  0x5f, 0x31, 0x2f, 0x4d, 0x61, 0x74, 0x4d, 0x75, 0x6c, 0x3b, 0x73, 0x65,
  0x71, 0x75, 0x65, 0x6e, 0x74, 0x69, 0x61, 0x6c, 0x2f, 0x64, 0x65, 0x6e,
  0x73, 0x65, 0x5f, 0x31, 0x2f, 0x52, 0x65, 0x6c, 0x75, 0x3b, 0x73, 0x65,
  0x71, 0x75, 0x65, 0x6e, 0x74, 0x69, 0x61, 0x6c, 0x2f, 0x64, 0x65, 0x6e,
  0x73, 0x65, 0x5f, 0x31, 0x2f, 0x42, 0x69, 0x61, 0x73, 0x41, 0x64, 0x64,
  0x00, 0x00, 0x00, 0x00, 0x02, 0x00, 0x00, 0x00, 0x01, 0x00, 0x00, 0x00,
  0x14, 0x00, 0x00, 0x00, 0xd2, 0xfc, 0xff, 0xff, 0x00, 0x00, 0x00, 0x01,
  0x14, 0x00, 0x00, 0x00, 0x34, 0x00, 0x00, 0x00, 0x08, 0x00, 0x00, 0x00,
  0x00, 0x00, 0x00, 0x09, 0x74, 0x00, 0x00, 0x00, 0xbc, 0xfc, 0xff, 0xff,
  0x08, 0x00, 0x00, 0x00, 0x14, 0x00, 0x00, 0x00, 0x01, 0x00, 0x00, 0x00,
  0x80, 0xff, 0xff, 0xff, 0xff, 0xff, 0xff, 0xff, 0x00, 0x00, 0x00, 0x00,
  0x01, 0x00, 0x00, 0x00, 0x6d, 0xdf, 0xc4, 0x3d, 0x46, 0x00, 0x00, 0x00,
  0x73, 0x65, 0x71, 0x75, 0x65, 0x6e, 0x74, 0x69, 0x61, 0x6c, 0x2f, 0x64,
  0x65, 0x6e, 0x73, 0x65, 0x2f, 0x4d, 0x61, 0x74, 0x4d, 0x75, 0x6c, 0x3b,
  0x73, 0x65, 0x71, 0x75, 0x65, 0x6e, 0x74, 0x69, 0x61, 0x6c, 0x2f, 0x64,
  0x65, 0x6e, 0x73, 0x65, 0x2f, 0x52, 0x65, 0x6c, 0x75, 0x3b, 0x73, 0x65,
  0x71, 0x75, 0x65, 0x6e, 0x74, 0x69, 0x61, 0x6c, 0x2f, 0x64, 0x65, 0x6e,
  0x73, 0x65, 0x2f, 0x42, 0x69, 0x61, 0x73, 0x41, 0x64, 0x64, 0x00, 0x00,
  0x02, 0x00, 0x00, 0x00, 0x01, 0x00, 0x00, 0x00, 0x28, 0x00, 0x00, 0x00,
  0x6a, 0xfd, 0xff, 0xff, 0x00, 0x00, 0x00, 0x01, 0x14, 0x00, 0x00, 0x00,
  0x34, 0x00, 0x00, 0x00, 0x07, 0x00, 0x00, 0x00, 0x00, 0x00, 0x00, 0x09,
  0x44, 0x00, 0x00, 0x00, 0x54, 0xfd, 0xff, 0xff, 0x08, 0x00, 0x00, 0x00,
  0x14, 0x00, 0x00, 0x00, 0x01, 0x00, 0x00, 0x00, 0x00, 0x00, 0x00, 0x00,
  0x00, 0x00, 0x00, 0x00, 0x00, 0x00, 0x00, 0x00, 0x01, 0x00, 0x00, 0x00,
  0x3b, 0x63, 0x5a, 0x3b, 0x17, 0x00, 0x00, 0x00, 0x73, 0x65, 0x71, 0x75,
  0x65, 0x6e, 0x74, 0x69, 0x61, 0x6c, 0x2f, 0x64, 0x65, 0x6e, 0x73, 0x65,
  0x2f, 0x4d, 0x61, 0x74, 0x4d, 0x75, 0x6c, 0x00, 0x02, 0x00, 0x00, 0x00,
  0x28, 0x00, 0x00, 0x00, 0xde, 0x00, 0x00, 0x00, 0xd2, 0xfd, 0xff, 0xff,
  0x00, 0x00, 0x00, 0x01, 0x14, 0x00, 0x00, 0x00, 0x30, 0x00, 0x00, 0x00,
  0x06, 0x00, 0x00, 0x00, 0x00, 0x00, 0x00, 0x02, 0x50, 0x00, 0x00, 0x00,
  0xbc, 0xfd, 0xff, 0xff, 0x08, 0x00, 0x00, 0x00, 0x10, 0x00, 0x00, 0x00,
  0x01, 0x00, 0x00, 0x00, 0x00, 0x00, 0x00, 0x00, 0x00, 0x00, 0x00, 0x00,
  0x01, 0x00, 0x00, 0x00, 0x86, 0x44, 0xe7, 0x3a, 0x27, 0x00, 0x00, 0x00,
  0x73, 0x65, 0x71, 0x75, 0x65, 0x6e, 0x74, 0x69, 0x61, 0x6c, 0x2f, 0x64,
  0x65, 0x6e, 0x73, 0x65, 0x2f, 0x42, 0x69, 0x61, 0x73, 0x41, 0x64, 0x64,
  0x2f, 0x52, 0x65, 0x61, 0x64, 0x56, 0x61, 0x72, 0x69, 0x61, 0x62, 0x6c,
  0x65, 0x4f, 0x70, 0x00, 0x01, 0x00, 0x00, 0x00, 0x28, 0x00, 0x00, 0x00,
  0x42, 0xfe, 0xff, 0xff, 0x00, 0x00, 0x00, 0x01, 0x14, 0x00, 0x00, 0x00,
  0x30, 0x00, 0x00, 0x00, 0x05, 0x00, 0x00, 0x00, 0x00, 0x00, 0x00, 0x09,
  0x44, 0x00, 0x00, 0x00, 0x2c, 0xfe, 0xff, 0xff, 0x08, 0x00, 0x00, 0x00,
  0x10, 0x00, 0x00, 0x00, 0x01, 0x00, 0x00, 0x00, 0x00, 0x00, 0x00, 0x00,
  0x00, 0x00, 0x00, 0x00, 0x01, 0x00, 0x00, 0x00, 0x49, 0x39, 0x75, 0x3b,
  0x19, 0x00, 0x00, 0x00, 0x73, 0x65, 0x71, 0x75, 0x65, 0x6e, 0x74, 0x69,
  0x61, 0x6c, 0x2f, 0x64, 0x65, 0x6e, 0x73, 0x65, 0x5f, 0x31, 0x2f, 0x4d,
  0x61, 0x74, 0x4d, 0x75, 0x6c, 0x00, 0x00, 0x00, 0x02, 0x00, 0x00, 0x00,
  0x14, 0x00, 0x00, 0x00, 0x28, 0x00, 0x00, 0x00, 0xaa, 0xfe, 0xff, 0xff,
  0x00, 0x00, 0x00, 0x01, 0x14, 0x00, 0x00, 0x00, 0x34, 0x00, 0x00, 0x00,
  0x04, 0x00, 0x00, 0x00, 0x00, 0x00, 0x00, 0x02, 0x58, 0x00, 0x00, 0x00,
  0x94, 0xfe, 0xff, 0xff, 0x08, 0x00, 0x00, 0x00, 0x14, 0x00, 0x00, 0x00,
  0x01, 0x00, 0x00, 0x00, 0x00, 0x00, 0x00, 0x00, 0x00, 0x00, 0x00, 0x00,
  0x00, 0x00, 0x00, 0x00, 0x01, 0x00, 0x00, 0x00, 0xe1, 0x95, 0xbc, 0x39,
  0x29, 0x00, 0x00, 0x00, 0x73, 0x65, 0x71, 0x75, 0x65, 0x6e, 0x74, 0x69,
  0x61, 0x6c, 0x2f, 0x64, 0x65, 0x6e, 0x73, 0x65, 0x5f, 0x31, 0x2f, 0x42,
  0x69, 0x61, 0x73, 0x41, 0x64, 0x64, 0x2f, 0x52, 0x65, 0x61, 0x64, 0x56,
  0x61, 0x72, 0x69, 0x61, 0x62, 0x6c, 0x65, 0x4f, 0x70, 0x00, 0x00, 0x00,
  0x01, 0x00, 0x00, 0x00, 0x14, 0x00, 0x00, 0x00, 0x22, 0xff, 0xff, 0xff,
  0x00, 0x00, 0x00, 0x01, 0x14, 0x00, 0x00, 0x00, 0x30, 0x00, 0x00, 0x00,
  0x03, 0x00, 0x00, 0x00, 0x00, 0x00, 0x00, 0x09, 0x44, 0x00, 0x00, 0x00,
  0x0c, 0xff, 0xff, 0xff, 0x08, 0x00, 0x00, 0x00, 0x10, 0x00, 0x00, 0x00,
  0x01, 0x00, 0x00, 0x00, 0x00, 0x00, 0x00, 0x00, 0x00, 0x00, 0x00, 0x00,
  0x01, 0x00, 0x00, 0x00, 0x06, 0x40, 0xa8, 0x3b, 0x18, 0x00, 0x00, 0x00,
  0x73, 0x65, 0x71, 0x75, 0x65, 0x6e, 0x74, 0x69, 0x61, 0x6c, 0x2f, 0x79,
  0x5f, 0x70, 0x72, 0x65, 0x64, 0x2f, 0x4d, 0x61, 0x74, 0x4d, 0x75, 0x6c,
  0x00, 0x00, 0x00, 0x00, 0x02, 0x00, 0x00, 0x00, 0x07, 0x00, 0x00, 0x00,
  0x14, 0x00, 0x00, 0x00, 0x8a, 0xff, 0xff, 0xff, 0x00, 0x00, 0x00, 0x01,
  0x14, 0x00, 0x00, 0x00, 0x30, 0x00, 0x00, 0x00, 0x02, 0x00, 0x00, 0x00,
  0x00, 0x00, 0x00, 0x02, 0x54, 0x00, 0x00, 0x00, 0x74, 0xff, 0xff, 0xff,
  0x08, 0x00, 0x00, 0x00, 0x10, 0x00, 0x00, 0x00, 0x01, 0x00, 0x00, 0x00,
  0x00, 0x00, 0x00, 0x00, 0x00, 0x00, 0x00, 0x00, 0x01, 0x00, 0x00, 0x00,
  0x12, 0xc2, 0xb9, 0x39, 0x28, 0x00, 0x00, 0x00, 0x73, 0x65, 0x71, 0x75,
  0x65, 0x6e, 0x74, 0x69, 0x61, 0x6c, 0x2f, 0x79, 0x5f, 0x70, 0x72, 0x65,
  0x64, 0x2f, 0x42, 0x69, 0x61, 0x73, 0x41, 0x64, 0x64, 0x2f, 0x52, 0x65,
  0x61, 0x64, 0x56, 0x61, 0x72, 0x69, 0x61, 0x62, 0x6c, 0x65, 0x4f, 0x70,
  0x00, 0x00, 0x00, 0x00, 0x01, 0x00, 0x00, 0x00, 0x07, 0x00, 0x00, 0x00,
  0x00, 0x00, 0x16, 0x00, 0x1c, 0x00, 0x18, 0x00, 0x17, 0x00, 0x10, 0x00,
  0x0c, 0x00, 0x08, 0x00, 0x00, 0x00, 0x00, 0x00, 0x00, 0x00, 0x07, 0x00,
  0x16, 0x00, 0x00, 0x00, 0x00, 0x00, 0x00, 0x01, 0x20, 0x00, 0x00, 0x00,
  0x40, 0x00, 0x00, 0x00, 0x01, 0x00, 0x00, 0x00, 0x00, 0x00, 0x00, 0x09,
  0x4c, 0x00, 0x00, 0x00, 0x0c, 0x00, 0x0c, 0x00, 0x00, 0x00, 0x00, 0x00,
  0x08, 0x00, 0x04, 0x00, 0x0c, 0x00, 0x00, 0x00, 0x08, 0x00, 0x00, 0x00,
  0x14, 0x00, 0x00, 0x00, 0x01, 0x00, 0x00, 0x00, 0x93, 0xff, 0xff, 0xff,
  0xff, 0xff, 0xff, 0xff, 0x00, 0x00, 0x00, 0x00, 0x01, 0x00, 0x00, 0x00,
  0x97, 0x8c, 0x07, 0x3f, 0x13, 0x00, 0x00, 0x00, 0x73, 0x65, 0x72, 0x76,
  0x69, 0x6e, 0x67, 0x5f, 0x64, 0x65, 0x66, 0x61, 0x75, 0x6c, 0x74, 0x5f,
  0x78, 0x3a, 0x30, 0x00, 0x02, 0x00, 0x00, 0x00, 0x01, 0x00, 0x00, 0x00,
  0xde, 0x00, 0x00, 0x00, 0x02, 0x00, 0x00, 0x00, 0x24, 0x00, 0x00, 0x00,
  0x04, 0x00, 0x00, 0x00, 0xf0, 0xff, 0xff, 0xff, 0x19, 0x00, 0x00, 0x00,
  0x02, 0x00, 0x00, 0x00, 0x00, 0x00, 0x00, 0x19, 0x0c, 0x00, 0x10, 0x00,
  0x0f, 0x00, 0x00, 0x00, 0x08, 0x00, 0x04, 0x00, 0x0c, 0x00, 0x00, 0x00,
  0x09, 0x00, 0x00, 0x00, 0x04, 0x00, 0x00, 0x00, 0x00, 0x00, 0x00, 0x09
};
unsigned int tflite_learn_17_len = 12456;
#endif // _EI_CLASSIFIER_TFLITE_LEARN_17_H_
